unsigned char model_int8_tflite[] = {
  0x1c, 0x00, 0x00, 0x00, 0x54, 0x46, 0x4c, 0x33, 0x14, 0x00, 0x20, 0x00,
  0x1c, 0x00, 0x18, 0x00, 0x14, 0x00, 0x10, 0x00, 0x0c, 0x00, 0x00, 0x00,
  0x08, 0x00, 0x04, 0x00, 0x14, 0x00, 0x00, 0x00, 0x1c, 0x00, 0x00, 0x00,
  0x98, 0x00, 0x00, 0x00, 0x18, 0x01, 0x00, 0x00, 0xd8, 0x47, 0x00, 0x00,
  0xe8, 0x47, 0x00, 0x00, 0x2c, 0x52, 0x00, 0x00, 0x03, 0x00, 0x00, 0x00,
  0x01, 0x00, 0x00, 0x00, 0x10, 0x00, 0x00, 0x00, 0x00, 0x00, 0x0a, 0x00,
  0x10, 0x00, 0x0c, 0x00, 0x08, 0x00, 0x04, 0x00, 0x0a, 0x00, 0x00, 0x00,
  0x0c, 0x00, 0x00, 0x00, 0x1c, 0x00, 0x00, 0x00, 0x3c, 0x00, 0x00, 0x00,
  0x0f, 0x00, 0x00, 0x00, 0x73, 0x65, 0x72, 0x76, 0x69, 0x6e, 0x67, 0x5f,
  0x64, 0x65, 0x66, 0x61, 0x75, 0x6c, 0x74, 0x00, 0x01, 0x00, 0x00, 0x00,
  0x04, 0x00, 0x00, 0x00, 0x68, 0xff, 0xff, 0xff, 0x0a, 0x00, 0x00, 0x00,
  0x04, 0x00, 0x00, 0x00, 0x08, 0x00, 0x00, 0x00, 0x6f, 0x75, 0x74, 0x70,
  0x75, 0x74, 0x5f, 0x30, 0x00, 0x00, 0x00, 0x00, 0x01, 0x00, 0x00, 0x00,
  0x04, 0x00, 0x00, 0x00, 0x0e, 0xb8, 0xff, 0xff, 0x04, 0x00, 0x00, 0x00,
  0x0f, 0x00, 0x00, 0x00, 0x6b, 0x65, 0x72, 0x61, 0x73, 0x5f, 0x74, 0x65,
  0x6e, 0x73, 0x6f, 0x72, 0x5f, 0x32, 0x30, 0x00, 0x03, 0x00, 0x00, 0x00,
  0x5c, 0x00, 0x00, 0x00, 0x2c, 0x00, 0x00, 0x00, 0x04, 0x00, 0x00, 0x00,
  0xb8, 0xff, 0xff, 0xff, 0x0e, 0x00, 0x00, 0x00, 0x04, 0x00, 0x00, 0x00,
  0x13, 0x00, 0x00, 0x00, 0x43, 0x4f, 0x4e, 0x56, 0x45, 0x52, 0x53, 0x49,
  0x4f, 0x4e, 0x5f, 0x4d, 0x45, 0x54, 0x41, 0x44, 0x41, 0x54, 0x41, 0x00,
  0xdc, 0xff, 0xff, 0xff, 0x0d, 0x00, 0x00, 0x00, 0x04, 0x00, 0x00, 0x00,
  0x13, 0x00, 0x00, 0x00, 0x6d, 0x69, 0x6e, 0x5f, 0x72, 0x75, 0x6e, 0x74,
  0x69, 0x6d, 0x65, 0x5f, 0x76, 0x65, 0x72, 0x73, 0x69, 0x6f, 0x6e, 0x00,
  0x08, 0x00, 0x0c, 0x00, 0x08, 0x00, 0x04, 0x00, 0x08, 0x00, 0x00, 0x00,
  0x0c, 0x00, 0x00, 0x00, 0x04, 0x00, 0x00, 0x00, 0x13, 0x00, 0x00, 0x00,
  0x6d, 0x69, 0x6e, 0x5f, 0x72, 0x75, 0x6e, 0x74, 0x69, 0x6d, 0x65, 0x5f,
  0x76, 0x65, 0x72, 0x73, 0x69, 0x6f, 0x6e, 0x00, 0x0f, 0x00, 0x00, 0x00,
  0xbc, 0x46, 0x00, 0x00, 0xb4, 0x46, 0x00, 0x00, 0x90, 0x46, 0x00, 0x00,
  0x44, 0x46, 0x00, 0x00, 0x04, 0x46, 0x00, 0x00, 0xd4, 0x44, 0x00, 0x00,
  0x64, 0x44, 0x00, 0x00, 0xd4, 0x00, 0x00, 0x00, 0xcc, 0x00, 0x00, 0x00,
  0xc4, 0x00, 0x00, 0x00, 0xbc, 0x00, 0x00, 0x00, 0xb4, 0x00, 0x00, 0x00,
  0x94, 0x00, 0x00, 0x00, 0x74, 0x00, 0x00, 0x00, 0x04, 0x00, 0x00, 0x00,
  0xee, 0xb8, 0xff, 0xff, 0x04, 0x00, 0x00, 0x00, 0x60, 0x00, 0x00, 0x00,
  0x0c, 0x00, 0x00, 0x00, 0x08, 0x00, 0x0e, 0x00, 0x08, 0x00, 0x04, 0x00,
  0x08, 0x00, 0x00, 0x00, 0x10, 0x00, 0x00, 0x00, 0x28, 0x00, 0x00, 0x00,
  0x00, 0x00, 0x06, 0x00, 0x08, 0x00, 0x04, 0x00, 0x06, 0x00, 0x00, 0x00,
  0x04, 0x00, 0x00, 0x00, 0x01, 0x00, 0x00, 0x00, 0xeb, 0x03, 0x00, 0x00,
  0x0c, 0x00, 0x18, 0x00, 0x14, 0x00, 0x10, 0x00, 0x0c, 0x00, 0x04, 0x00,
  0x0c, 0x00, 0x00, 0x00, 0x27, 0xe1, 0xe7, 0x1b, 0x0c, 0x6e, 0x49, 0x23,
  0x02, 0x00, 0x00, 0x00, 0x02, 0x00, 0x00, 0x00, 0x04, 0x00, 0x00, 0x00,
  0x06, 0x00, 0x00, 0x00, 0x32, 0x2e, 0x31, 0x39, 0x2e, 0x30, 0x00, 0x00,
  0x5a, 0xb9, 0xff, 0xff, 0x04, 0x00, 0x00, 0x00, 0x10, 0x00, 0x00, 0x00,
  0x00, 0x00, 0x00, 0x00, 0x00, 0x00, 0x00, 0x00, 0x00, 0x00, 0x00, 0x00,
  0x00, 0x00, 0x00, 0x00, 0x76, 0xb9, 0xff, 0xff, 0x04, 0x00, 0x00, 0x00,
  0x10, 0x00, 0x00, 0x00, 0x31, 0x2e, 0x31, 0x34, 0x2e, 0x30, 0x00, 0x00,
  0x00, 0x00, 0x00, 0x00, 0x00, 0x00, 0x00, 0x00, 0x60, 0xb9, 0xff, 0xff,
  0x64, 0xb9, 0xff, 0xff, 0x68, 0xb9, 0xff, 0xff, 0x6c, 0xb9, 0xff, 0xff,
  0xa2, 0xb9, 0xff, 0xff, 0x04, 0x00, 0x00, 0x00, 0x80, 0x43, 0x00, 0x00,
  0x92, 0x00, 0x23, 0x69, 0x11, 0xf7, 0x6b, 0x3d, 0x38, 0x24, 0x87, 0x5b,
  0x4b, 0x70, 0x16, 0xa7, 0x57, 0x3b, 0x3b, 0x70, 0x8f, 0xd7, 0x0d, 0xd8,
  0xc6, 0x9e, 0xbb, 0x54, 0x20, 0xd3, 0xc5, 0x1b, 0x64, 0xa1, 0x35, 0xf8,
  0x42, 0x2d, 0x3a, 0x53, 0x5a, 0xd5, 0x9d, 0x15, 0xea, 0xe6, 0xa9, 0xe2,
  0xf5, 0x22, 0x91, 0xc2, 0xba, 0x38, 0x54, 0x33, 0x1c, 0x39, 0xb1, 0x0c,
  0xd9, 0x84, 0x78, 0xb3, 0xde, 0x16, 0xb1, 0x6a, 0x06, 0x40, 0xe1, 0x22,
  0x01, 0x2f, 0xe3, 0x37, 0xbf, 0x64, 0x59, 0xf1, 0x55, 0xdc, 0x67, 0x89,
  0x27, 0x01, 0x3d, 0x97, 0xd7, 0xc5, 0xcb, 0x99, 0x52, 0x68, 0x3b, 0x8d,
  0x5a, 0x12, 0x9b, 0xc0, 0xf3, 0xca, 0xe3, 0x9d, 0x3a, 0x5d, 0x38, 0x9f,
  0xe5, 0xf8, 0x22, 0x33, 0x99, 0xc4, 0x77, 0x35, 0x0b, 0x18, 0xde, 0xfa,
  0x22, 0x11, 0xd2, 0x82, 0xc7, 0xd4, 0xcb, 0xb3, 0x32, 0xd6, 0xfb, 0xeb,
  0x5d, 0x58, 0x3c, 0x1b, 0x4f, 0x28, 0xfd, 0x2c, 0xcb, 0xb7, 0xa6, 0x4a,
  0x0b, 0x94, 0x1c, 0x0f, 0xda, 0xe9, 0x55, 0xad, 0x5e, 0xc8, 0x3a, 0x30,
  0xc0, 0xb8, 0x96, 0x4c, 0xf0, 0xc9, 0x51, 0x30, 0x5b, 0xfb, 0x89, 0x3c,
  0x50, 0x10, 0xf1, 0x95, 0x21, 0xc3, 0x69, 0x0b, 0x32, 0x45, 0x66, 0xf6,
  0x36, 0xc7, 0xe5, 0x37, 0x66, 0xa6, 0x11, 0xb1, 0xb2, 0xb8, 0xf0, 0xf3,
  0xc8, 0x21, 0x75, 0x26, 0xca, 0xfb, 0xdc, 0xaa, 0xc3, 0x57, 0x27, 0x58,
  0x6f, 0x3a, 0xe9, 0x6e, 0xc5, 0x6a, 0x16, 0x30, 0x5e, 0x12, 0x0f, 0x27,
  0x74, 0xb1, 0xdc, 0xc0, 0xef, 0x25, 0x10, 0xd2, 0xd5, 0x91, 0xc3, 0xf7,
  0x03, 0x3d, 0x8b, 0xd4, 0xff, 0x8b, 0x2b, 0xea, 0xda, 0x54, 0x2c, 0x27,
  0x89, 0xaa, 0xdb, 0xbf, 0x6d, 0xa4, 0xb4, 0x8d, 0x38, 0xfd, 0x2e, 0xbf,
  0x2f, 0x92, 0xcf, 0xe6, 0xec, 0xfd, 0x00, 0xaa, 0x63, 0xbb, 0xb4, 0xff,
  0x49, 0x8c, 0xac, 0x10, 0xe8, 0x9d, 0xca, 0x05, 0x40, 0x06, 0xf5, 0x2c,
  0x0f, 0x02, 0xd7, 0x10, 0x26, 0xe8, 0xf8, 0xa0, 0x1a, 0xc8, 0x18, 0x2f,
  0x46, 0x6f, 0x03, 0x61, 0xf1, 0xc7, 0x99, 0xe4, 0x38, 0x14, 0x18, 0x2b,
  0xff, 0xc3, 0xdd, 0x9e, 0xfa, 0xdb, 0xed, 0x91, 0xfc, 0x10, 0xe5, 0xa3,
  0x1f, 0x87, 0xd0, 0xde, 0x9f, 0xfb, 0xdd, 0x86, 0x24, 0xec, 0xcd, 0x54,
  0xb2, 0x86, 0x89, 0x04, 0xf8, 0x5a, 0x4b, 0x6a, 0x98, 0xa4, 0x23, 0x95,
  0xce, 0xed, 0x6f, 0x04, 0x2a, 0xd2, 0xae, 0x0e, 0x22, 0x8c, 0xd9, 0xd8,
  0x0b, 0xe4, 0xaa, 0xce, 0xae, 0x9f, 0xb7, 0x08, 0x2a, 0x15, 0xd6, 0xe2,
  0x5b, 0x88, 0x6f, 0x43, 0x1b, 0xa0, 0xc3, 0x36, 0x3c, 0x16, 0xd7, 0x69,
  0x92, 0x01, 0xd9, 0x89, 0xda, 0x91, 0xe3, 0xb7, 0xb3, 0xe5, 0xab, 0x98,
  0x93, 0x29, 0x06, 0xbf, 0x87, 0xe5, 0xa7, 0x52, 0x2d, 0xc7, 0x25, 0x04,
  0x26, 0xf7, 0x0a, 0x0f, 0x85, 0x22, 0x02, 0x17, 0xe7, 0xd9, 0xb8, 0xb5,
  0x52, 0x29, 0x42, 0xa1, 0xf4, 0x81, 0xda, 0x59, 0x28, 0x92, 0x01, 0x05,
  0x15, 0xa0, 0x02, 0x9d, 0xfc, 0x51, 0xb3, 0xa4, 0xe0, 0xb0, 0xd6, 0xc8,
  0xa9, 0xe7, 0x99, 0x63, 0x0b, 0x64, 0x05, 0x1d, 0xf4, 0x40, 0x3f, 0x30,
  0xd2, 0xda, 0xbd, 0xfb, 0x06, 0x8c, 0xd9, 0x90, 0x1e, 0x03, 0x24, 0xae,
  0x07, 0xdc, 0x35, 0x9b, 0xf3, 0x5a, 0x3b, 0x21, 0xb5, 0xa1, 0x8a, 0x13,
  0xf2, 0x00, 0x03, 0xec, 0xdb, 0xf5, 0xbb, 0xe3, 0xa8, 0xf2, 0xc2, 0x34,
  0x76, 0x18, 0x06, 0xa5, 0xe2, 0xd8, 0x51, 0x3b, 0x48, 0xcc, 0xa9, 0x3c,
  0x9b, 0x3a, 0x16, 0x84, 0x0d, 0xfc, 0x18, 0x0a, 0x0e, 0xff, 0x33, 0x1f,
  0x54, 0xc3, 0x50, 0x1a, 0xa4, 0x5f, 0x44, 0x4f, 0x09, 0xda, 0x39, 0x52,
  0x1f, 0xc9, 0xe4, 0x46, 0x01, 0x6f, 0x32, 0xc9, 0xa2, 0xc7, 0xa3, 0xe4,
  0x65, 0x32, 0xeb, 0x4d, 0x31, 0x88, 0x67, 0x0b, 0x5a, 0x49, 0xff, 0xe6,
  0xac, 0xb0, 0x1a, 0x6c, 0x16, 0x65, 0xb4, 0xf8, 0xe1, 0x63, 0xae, 0x3a,
  0xc0, 0xe6, 0x92, 0x09, 0x1c, 0xfb, 0xdd, 0xd5, 0x98, 0xdd, 0xcd, 0x93,
  0xe1, 0x31, 0x4b, 0x19, 0x32, 0x5f, 0x64, 0xe2, 0xf1, 0x9e, 0x3f, 0x17,
  0xa0, 0x93, 0xd0, 0xe0, 0x27, 0x88, 0x8c, 0xc2, 0x61, 0x27, 0xf9, 0x3c,
  0xf9, 0x37, 0x18, 0x09, 0x49, 0x6b, 0x1b, 0xfa, 0x0f, 0x4d, 0xa1, 0x4a,
  0xb3, 0x88, 0x59, 0x3b, 0x2a, 0x9b, 0x08, 0x0a, 0xcf, 0x5d, 0x29, 0xc1,
  0xd0, 0xab, 0xb8, 0x5c, 0xaa, 0x44, 0xeb, 0x08, 0x46, 0x26, 0x09, 0x24,
  0x37, 0xfc, 0xa2, 0x5e, 0x06, 0x5a, 0x07, 0xa8, 0xd1, 0x29, 0x3e, 0xe2,
  0xc4, 0x94, 0x6b, 0xb5, 0xe8, 0x43, 0x2e, 0x0f, 0xe2, 0xf8, 0x3c, 0x47,
  0x5b, 0x98, 0x82, 0xac, 0xd5, 0x85, 0x35, 0x3c, 0x53, 0xeb, 0x85, 0xb9,
  0x94, 0x98, 0x25, 0xac, 0x39, 0xab, 0xdb, 0x8f, 0xfc, 0x39, 0x83, 0x20,
  0x8a, 0x19, 0x34, 0x63, 0x03, 0x43, 0x9b, 0xee, 0x14, 0xee, 0x39, 0x5a,
  0xf8, 0x03, 0x2a, 0x89, 0xdd, 0x1c, 0xd1, 0xab, 0xc2, 0x25, 0x2d, 0xa9,
  0xbc, 0xb2, 0xf2, 0xb7, 0x41, 0x9a, 0xd1, 0x14, 0x91, 0x67, 0x9a, 0x27,
  0x4c, 0x0a, 0x74, 0xc1, 0xd8, 0x57, 0x4b, 0xb3, 0x43, 0x9b, 0x32, 0x38,
  0x25, 0xcc, 0x00, 0x54, 0xde, 0xf9, 0x0a, 0xf5, 0xe4, 0x2a, 0x07, 0x53,
  0xe7, 0xcb, 0x1a, 0x4a, 0x46, 0x3c, 0x46, 0x31, 0xd8, 0x5b, 0x55, 0x02,
  0xea, 0xbf, 0x0d, 0x15, 0x15, 0x1b, 0xf3, 0x39, 0x1e, 0x39, 0x4a, 0xf8,
  0x45, 0xdd, 0xee, 0x33, 0x21, 0x2d, 0x1c, 0xc0, 0xb4, 0x39, 0xe1, 0xeb,
  0x0e, 0xf7, 0xf1, 0x26, 0x04, 0xea, 0x36, 0xcb, 0x09, 0x41, 0x53, 0x07,
  0xff, 0xdd, 0xca, 0x5b, 0x29, 0x3c, 0x28, 0x3b, 0x3d, 0x14, 0x14, 0xdf,
  0x50, 0x16, 0xe7, 0x51, 0xfc, 0x05, 0x17, 0xf1, 0xd8, 0xfd, 0x1f, 0x36,
  0xe3, 0xbf, 0x3b, 0xe4, 0x1d, 0x24, 0xdb, 0xbf, 0xf0, 0x31, 0x14, 0x54,
  0x19, 0xc0, 0xe4, 0xe0, 0x3e, 0x12, 0x46, 0xe5, 0xdd, 0xfa, 0xe0, 0x13,
  0x50, 0xc2, 0xfd, 0xf3, 0xff, 0x1f, 0x06, 0x03, 0x17, 0x12, 0xed, 0x0e,
  0x2f, 0xf5, 0x17, 0x05, 0xf2, 0x13, 0x1a, 0xe5, 0xcb, 0x37, 0x32, 0x51,
  0x2a, 0xb4, 0x42, 0x1e, 0x45, 0x17, 0x6e, 0x03, 0xed, 0x08, 0xda, 0x54,
  0x2c, 0x15, 0xe5, 0x2d, 0x2d, 0xd6, 0x20, 0x06, 0xdc, 0x1f, 0xd7, 0x04,
  0x0a, 0x1f, 0x14, 0x10, 0x36, 0x07, 0x01, 0xdd, 0xb8, 0xe7, 0x4d, 0xdb,
  0x01, 0x24, 0xf0, 0xee, 0xdf, 0x39, 0x3d, 0xe5, 0xca, 0x1a, 0x21, 0x1e,
  0x26, 0x32, 0x12, 0x5d, 0x12, 0x24, 0x28, 0x22, 0xba, 0xe3, 0x21, 0x49,
  0x15, 0x16, 0xd0, 0x50, 0x45, 0x38, 0x60, 0x25, 0xe4, 0xfd, 0xf6, 0x10,
  0xee, 0x01, 0x13, 0x3c, 0xfb, 0x08, 0x1b, 0x2a, 0xf5, 0x29, 0x47, 0x1a,
  0xfb, 0xd3, 0x3b, 0xf9, 0x1f, 0x06, 0x06, 0x1e, 0x1e, 0x28, 0x33, 0xeb,
  0x01, 0xf9, 0xe3, 0xd9, 0xd7, 0xf5, 0x26, 0xf5, 0xf6, 0xef, 0x36, 0xff,
  0x3e, 0xf1, 0xb7, 0x14, 0x0d, 0x3d, 0x55, 0xde, 0xb9, 0xf7, 0x5e, 0x06,
  0x73, 0x03, 0xe5, 0x27, 0xf9, 0x54, 0x27, 0xf6, 0x2e, 0xd9, 0xff, 0x03,
  0x73, 0xfc, 0xc4, 0x1b, 0xe7, 0xd8, 0x6e, 0xf0, 0xe4, 0xfc, 0x1a, 0x33,
  0x61, 0x28, 0x1b, 0x05, 0xfa, 0x02, 0x49, 0xb0, 0x15, 0xd7, 0x4a, 0x1e,
  0x64, 0xc3, 0x05, 0x1e, 0xeb, 0x45, 0x61, 0xdd, 0xba, 0xd6, 0xe3, 0x2b,
  0x6a, 0x0d, 0xed, 0xef, 0xe9, 0x51, 0x50, 0x27, 0x07, 0x54, 0x3d, 0x5d,
  0x41, 0xf3, 0x28, 0x4f, 0x26, 0x3d, 0x5c, 0xf4, 0x0b, 0x2f, 0xd8, 0x4f,
  0x7f, 0x33, 0xb2, 0x5d, 0x0d, 0x30, 0x35, 0x0a, 0xe6, 0x1a, 0x40, 0x22,
  0x65, 0x0c, 0xd6, 0xe6, 0x4c, 0xff, 0x6a, 0x1d, 0xd0, 0xfb, 0x1e, 0xea,
  0x58, 0x14, 0xfe, 0x03, 0x00, 0x3d, 0x54, 0x27, 0x2b, 0xde, 0x56, 0x0a,
  0x45, 0x16, 0x3f, 0x1b, 0x58, 0x29, 0xef, 0xfe, 0xeb, 0x42, 0xe1, 0xd6,
  0x31, 0xc4, 0xf0, 0xff, 0xe4, 0xff, 0x3f, 0xe6, 0xd5, 0x32, 0x0f, 0x0c,
  0xeb, 0xc6, 0x1e, 0xda, 0xee, 0x0e, 0xec, 0xef, 0xcc, 0x56, 0x12, 0x33,
  0xe8, 0xec, 0x25, 0xeb, 0xf4, 0xe2, 0xf7, 0xf7, 0xcb, 0xd9, 0xdb, 0x07,
  0x26, 0x1a, 0x12, 0x18, 0x1f, 0x01, 0x4e, 0x16, 0xef, 0x01, 0x10, 0x4c,
  0x25, 0x0c, 0x38, 0x0c, 0xf3, 0xeb, 0x48, 0x34, 0xc6, 0xe7, 0x3a, 0x52,
  0x55, 0x03, 0xe9, 0x32, 0xe9, 0xde, 0xe9, 0x37, 0xb6, 0x08, 0x07, 0xfa,
  0x51, 0xe1, 0x02, 0x3c, 0xd7, 0x04, 0xfd, 0x1b, 0xda, 0xfc, 0x30, 0xe4,
  0x63, 0x12, 0x13, 0xe8, 0x36, 0x07, 0x15, 0xd2, 0xcd, 0xed, 0x0f, 0x0f,
  0xe1, 0xc6, 0x0d, 0x03, 0x17, 0x51, 0x53, 0xc3, 0x22, 0x07, 0x2c, 0x26,
  0xed, 0x2e, 0x30, 0x20, 0xf4, 0x0b, 0x0c, 0x01, 0xed, 0x2a, 0x04, 0xec,
  0x44, 0xf0, 0xda, 0x16, 0xfd, 0xe8, 0x38, 0xbc, 0xd6, 0xdf, 0xd8, 0x17,
  0x29, 0xd9, 0x0c, 0x16, 0x5a, 0x49, 0x0d, 0xfa, 0x23, 0x06, 0x19, 0x51,
  0x01, 0xe2, 0xc0, 0x4f, 0x02, 0x2b, 0x07, 0xfa, 0xee, 0x0e, 0x35, 0x25,
  0x62, 0xd2, 0x23, 0xff, 0x1b, 0x28, 0x52, 0x09, 0xec, 0x21, 0x50, 0xf6,
  0x42, 0x04, 0x25, 0x06, 0x32, 0x1b, 0x67, 0x17, 0xe8, 0x1b, 0x40, 0xeb,
  0x67, 0xfa, 0xcb, 0x09, 0xe3, 0x03, 0x2a, 0x16, 0xcd, 0xd8, 0x12, 0x37,
  0x00, 0x28, 0xc9, 0x38, 0x20, 0x1a, 0xe4, 0xda, 0xf3, 0x4d, 0x42, 0x53,
  0x61, 0xd2, 0x13, 0xec, 0x26, 0xf0, 0x2f, 0xf7, 0xbb, 0x0c, 0x04, 0x54,
  0xee, 0xd8, 0x2a, 0xf1, 0x4c, 0x2c, 0x5e, 0x41, 0xe3, 0x47, 0x33, 0x49,
  0x32, 0x0c, 0xf3, 0xda, 0x34, 0x0c, 0xfa, 0xee, 0xfa, 0xf4, 0x33, 0x24,
  0x22, 0x2c, 0xcd, 0x3f, 0xee, 0x34, 0x30, 0x42, 0x0e, 0xf4, 0x49, 0xf6,
  0x6c, 0xf9, 0xed, 0x46, 0xf6, 0x13, 0xe9, 0x20, 0x0e, 0x29, 0xfe, 0x2e,
  0x27, 0xfa, 0xc3, 0x36, 0x5f, 0xda, 0x05, 0x3e, 0x02, 0x36, 0x50, 0x10,
  0xfb, 0xfb, 0xc7, 0x5c, 0x5d, 0xe0, 0x68, 0xe1, 0x38, 0xe6, 0x0d, 0xfe,
  0x0d, 0xd8, 0xe4, 0x48, 0x38, 0x1c, 0x61, 0xdc, 0xbe, 0x11, 0xff, 0x25,
  0x12, 0x05, 0x20, 0x4f, 0xea, 0x3a, 0x38, 0x41, 0xb3, 0xf4, 0x05, 0xf5,
  0xdb, 0xfc, 0x0c, 0x53, 0x4d, 0x3e, 0x56, 0xdd, 0xcb, 0x54, 0x02, 0x3a,
  0x4a, 0x0b, 0xfc, 0x32, 0x24, 0x5c, 0xee, 0x3d, 0xea, 0x52, 0x1a, 0x26,
  0x1d, 0xe3, 0xf3, 0x29, 0x41, 0x32, 0x46, 0x0b, 0xf0, 0x07, 0xe9, 0x56,
  0xa7, 0x02, 0xbb, 0xfb, 0x63, 0x8b, 0xae, 0xf5, 0xe9, 0xff, 0x39, 0x01,
  0x2d, 0x67, 0xd0, 0x5c, 0x94, 0xd8, 0x8f, 0x55, 0x5c, 0x52, 0x4b, 0x8d,
  0xa0, 0x11, 0x83, 0xd4, 0xb3, 0x23, 0xc3, 0x62, 0xec, 0x0e, 0x93, 0xec,
  0xff, 0xdb, 0x31, 0x46, 0xd5, 0xb9, 0x87, 0x02, 0x06, 0xe4, 0x13, 0xfd,
  0x62, 0xc4, 0x53, 0x4e, 0xd5, 0x4f, 0x14, 0x14, 0xe8, 0x68, 0xea, 0xdd,
  0xf0, 0x4a, 0xa1, 0xff, 0xd1, 0x9e, 0xff, 0x57, 0xad, 0x16, 0x0e, 0x03,
  0xea, 0x8a, 0xd2, 0x0a, 0x96, 0x5f, 0x1c, 0xff, 0x10, 0xbc, 0xd9, 0xb1,
  0x1e, 0xf1, 0x69, 0xc9, 0x83, 0xe3, 0xf2, 0xc5, 0xce, 0xa2, 0x4c, 0xb7,
  0x59, 0xd9, 0x55, 0x5b, 0xdf, 0x44, 0xd2, 0xb8, 0x15, 0x34, 0xf6, 0x1e,
  0xf5, 0x9a, 0xfb, 0x56, 0x27, 0x28, 0x2b, 0x3b, 0x30, 0x45, 0x3a, 0xab,
  0xbf, 0x12, 0x3a, 0x4d, 0x2f, 0xf5, 0xed, 0x9f, 0xdf, 0x45, 0x95, 0x4b,
  0x65, 0x2c, 0x54, 0x9e, 0x04, 0xd9, 0x5f, 0x53, 0xab, 0x41, 0x9c, 0x40,
  0x17, 0xa8, 0x61, 0xc5, 0x40, 0xd0, 0xbc, 0x97, 0x3d, 0x00, 0x93, 0xcf,
  0xe3, 0x8d, 0x39, 0x3e, 0x4c, 0xad, 0x16, 0x39, 0xcb, 0x48, 0x94, 0xcb,
  0x8c, 0x42, 0xad, 0xfa, 0x0f, 0x55, 0xb1, 0x27, 0xe2, 0x04, 0xe5, 0x45,
  0xe8, 0xd6, 0xd5, 0xd7, 0x87, 0x1c, 0x91, 0xda, 0x9e, 0x18, 0xed, 0x3b,
  0x6c, 0x2f, 0x23, 0x69, 0x63, 0x2d, 0xbc, 0x9c, 0xce, 0x89, 0xab, 0x4c,
  0xcd, 0x8b, 0x46, 0x3d, 0x5f, 0x68, 0x64, 0x9f, 0x8c, 0x44, 0xf1, 0xdf,
  0x18, 0xd0, 0xed, 0xa2, 0x3e, 0x20, 0xa6, 0x9e, 0x5d, 0x47, 0xd7, 0xe9,
  0x22, 0xd2, 0x3b, 0xe6, 0x11, 0x18, 0x0d, 0x95, 0xd7, 0x1a, 0x9f, 0x0d,
  0xe7, 0xbd, 0x8f, 0x32, 0xf0, 0x01, 0x35, 0xcd, 0x42, 0xe0, 0xb2, 0xe6,
  0x00, 0xc2, 0xcf, 0xe4, 0x62, 0x0a, 0x5e, 0x97, 0x16, 0xa9, 0xd6, 0x99,
  0x5f, 0x89, 0xc2, 0x32, 0xc3, 0xc5, 0x47, 0xe2, 0x06, 0x4f, 0x5b, 0x30,
  0xce, 0x12, 0xbf, 0x0e, 0xef, 0x9a, 0xa4, 0x1c, 0x05, 0xbe, 0xd3, 0x8a,
  0xfb, 0xf9, 0x01, 0x94, 0xc1, 0x97, 0xb5, 0xed, 0x29, 0x03, 0xe5, 0x8c,
  0x53, 0x90, 0x43, 0xac, 0x1c, 0x2e, 0xd0, 0x53, 0xf7, 0x12, 0x8f, 0x62,
  0xd4, 0x5c, 0x42, 0xe1, 0x29, 0xba, 0xb7, 0x5e, 0xb4, 0x18, 0x52, 0x1b,
  0x6f, 0xbd, 0x61, 0x5f, 0xbb, 0x3c, 0xbe, 0xde, 0x8a, 0x4f, 0xcf, 0xfa,
  0xff, 0xa2, 0x20, 0xb6, 0x5e, 0x18, 0xf8, 0x18, 0x40, 0x26, 0x97, 0x9f,
  0x47, 0x3b, 0xa3, 0x3f, 0x02, 0x5f, 0xe8, 0xbd, 0x02, 0xdb, 0xbc, 0x94,
  0x0d, 0xe0, 0x2d, 0x01, 0xf0, 0xd4, 0xea, 0x0b, 0xde, 0x95, 0x8b, 0xc5,
  0x4d, 0xfb, 0x26, 0x66, 0xe9, 0x13, 0x10, 0x4c, 0xf3, 0xf3, 0x2d, 0xa4,
  0xba, 0xfb, 0x5b, 0x0d, 0xb8, 0xe9, 0xef, 0xe6, 0x52, 0x14, 0x25, 0x42,
  0x5c, 0x9b, 0x18, 0x23, 0x07, 0x13, 0x12, 0x5a, 0x57, 0xd4, 0xbb, 0x3d,
  0xe8, 0x5e, 0x5d, 0x09, 0x1d, 0xe3, 0x37, 0x39, 0xa5, 0x0c, 0xb0, 0x10,
  0xd3, 0x4a, 0x4c, 0x5f, 0x4a, 0x83, 0xe5, 0x28, 0xee, 0xa8, 0x50, 0x24,
  0xe8, 0x4b, 0xba, 0xc9, 0xd3, 0x97, 0xf9, 0x12, 0x65, 0x04, 0xc9, 0x9b,
  0x41, 0xc8, 0x48, 0xcc, 0xb5, 0x55, 0x5a, 0xa4, 0x0a, 0x49, 0xb2, 0x47,
  0xb6, 0x27, 0x3a, 0xcc, 0x58, 0x37, 0x51, 0xce, 0x00, 0xd9, 0x8e, 0x90,
  0xfc, 0x84, 0xa7, 0x35, 0xa3, 0x3d, 0x11, 0x89, 0xfe, 0x8e, 0x27, 0x06,
  0x0b, 0xe6, 0xcb, 0xad, 0x48, 0xac, 0xcc, 0x55, 0x06, 0xb5, 0xdb, 0x04,
  0x17, 0x64, 0x5b, 0x91, 0xf0, 0xdd, 0xda, 0xee, 0x12, 0x3f, 0xf5, 0x3f,
  0xf9, 0x87, 0x3b, 0xbe, 0x2a, 0xaa, 0x6a, 0xcf, 0x25, 0x4d, 0x2c, 0xab,
  0xbe, 0x98, 0x61, 0x1e, 0xe6, 0x55, 0xbf, 0x0a, 0x40, 0x09, 0x81, 0xed,
  0xa0, 0xd3, 0x54, 0xca, 0x94, 0xb9, 0x4c, 0xfd, 0x10, 0xcf, 0x4a, 0xb3,
  0x25, 0x33, 0x5d, 0xc1, 0x48, 0x1c, 0x2c, 0x50, 0x2f, 0xf7, 0x4e, 0xe8,
  0xe3, 0x0c, 0xfd, 0x13, 0xfb, 0x3e, 0x3c, 0x28, 0xbd, 0xb1, 0xca, 0xb7,
  0xf6, 0x0e, 0x14, 0x3d, 0x25, 0xcc, 0xa8, 0x4f, 0xbb, 0xe4, 0x45, 0x60,
  0x1d, 0x01, 0x52, 0x2f, 0x52, 0xf1, 0x43, 0x0e, 0x4a, 0xd5, 0x61, 0xa2,
  0x4d, 0xe5, 0xdc, 0x42, 0x31, 0x52, 0x22, 0x93, 0x55, 0xf7, 0x68, 0x25,
  0x21, 0xa7, 0x32, 0xf9, 0x2e, 0xfd, 0x91, 0x26, 0xef, 0xab, 0x65, 0xac,
  0x04, 0x8b, 0xcf, 0xa9, 0xba, 0xc6, 0x6b, 0xd3, 0xd1, 0x2d, 0x68, 0x16,
  0xab, 0x1d, 0x4f, 0x55, 0xa0, 0x8c, 0x54, 0xdb, 0x94, 0x88, 0x62, 0x66,
  0x8b, 0x0a, 0x60, 0x98, 0x2a, 0x26, 0xe1, 0x62, 0xf2, 0x1f, 0x10, 0x43,
  0x13, 0x9c, 0xb2, 0xc4, 0x0a, 0x5d, 0xa2, 0x66, 0x33, 0xe0, 0x1f, 0x82,
  0xc3, 0xf6, 0xc9, 0xa4, 0xd6, 0x54, 0xe1, 0x34, 0x2d, 0x06, 0x21, 0x22,
  0x3e, 0x31, 0x3a, 0xd0, 0xa0, 0xd5, 0x02, 0xc9, 0xa2, 0x11, 0x0d, 0x42,
  0xdf, 0x61, 0xdf, 0x9e, 0xf4, 0x0e, 0x18, 0x57, 0x1e, 0x1b, 0x08, 0x8a,
  0x14, 0x29, 0x3a, 0xa9, 0xe0, 0x25, 0xea, 0xcf, 0x98, 0x88, 0x05, 0x03,
  0x5c, 0xe9, 0xf8, 0x06, 0x9c, 0xe4, 0xac, 0x50, 0xda, 0xf5, 0x1e, 0x8b,
  0x9f, 0xd4, 0x54, 0x2b, 0x8b, 0x4d, 0xd7, 0xd3, 0x60, 0xac, 0x81, 0x04,
  0x91, 0x6d, 0xba, 0xa7, 0x0f, 0x95, 0xd9, 0x6d, 0xe2, 0x4d, 0x76, 0x72,
  0x9e, 0x2a, 0x09, 0xa9, 0x74, 0xc3, 0x09, 0x55, 0x0b, 0xfd, 0x53, 0xf2,
  0x10, 0x6a, 0xd3, 0xdf, 0xca, 0xa7, 0x9f, 0xf7, 0xc5, 0xea, 0xee, 0x29,
  0x36, 0xd2, 0x56, 0xb8, 0x55, 0xf4, 0x72, 0xee, 0x0b, 0x8a, 0x76, 0xa9,
  0x85, 0x9d, 0x89, 0xcc, 0xd7, 0xb9, 0xf8, 0xab, 0xff, 0xe8, 0x9f, 0xea,
  0x47, 0x3b, 0x04, 0x5e, 0xf1, 0xac, 0xb0, 0xe1, 0x60, 0xd5, 0xd6, 0x49,
  0x72, 0x44, 0x89, 0x3b, 0xfd, 0xda, 0x25, 0x10, 0x98, 0x87, 0xda, 0xb0,
  0x79, 0x45, 0x25, 0x17, 0xd9, 0xc2, 0x7d, 0xf4, 0x7b, 0xc6, 0x19, 0x52,
  0xcf, 0xb4, 0x8d, 0x86, 0x97, 0xd7, 0xbc, 0xca, 0x2c, 0xd1, 0x05, 0xdd,
  0xc3, 0x67, 0x1f, 0x6c, 0x06, 0x2b, 0x99, 0xfe, 0x16, 0x91, 0xb9, 0x85,
  0x91, 0xb2, 0x5b, 0x3a, 0xa9, 0xe2, 0x47, 0xb2, 0xea, 0x8f, 0xf7, 0xb2,
  0x29, 0x9e, 0x05, 0xe1, 0x8a, 0x08, 0x16, 0x54, 0x2b, 0x04, 0x04, 0xa3,
  0x28, 0x8c, 0x0a, 0x17, 0xa6, 0x6d, 0x33, 0xcd, 0x96, 0x35, 0x1f, 0xe7,
  0x3e, 0x72, 0x32, 0xcb, 0x39, 0xa1, 0x17, 0xa1, 0x06, 0xab, 0x06, 0x40,
  0x3f, 0x06, 0x13, 0x4f, 0x29, 0x47, 0x74, 0x12, 0xd0, 0x84, 0x97, 0x38,
  0xed, 0x48, 0x63, 0xc2, 0x8a, 0x4e, 0xac, 0x32, 0x34, 0xce, 0xca, 0x28,
  0xe3, 0x00, 0x09, 0xb8, 0x65, 0xe2, 0xc2, 0xf6, 0x55, 0x41, 0xcd, 0x14,
  0x8b, 0x9c, 0xf1, 0x97, 0xc6, 0x20, 0x10, 0x81, 0xaf, 0xab, 0x86, 0x20,
  0x1c, 0xed, 0x21, 0x8b, 0x18, 0xea, 0x8f, 0x56, 0x9d, 0xeb, 0xc8, 0x3d,
  0x1a, 0x92, 0x9c, 0x13, 0x38, 0xb7, 0xfa, 0x03, 0x21, 0xb1, 0x09, 0xd8,
  0xf0, 0x96, 0xfe, 0x93, 0xaf, 0x85, 0x84, 0x15, 0x67, 0x98, 0xe3, 0x87,
  0xfc, 0x6f, 0x15, 0x9e, 0x2d, 0xf2, 0xbf, 0xc1, 0x15, 0x0b, 0xba, 0xbd,
  0x06, 0xf9, 0xd3, 0x91, 0xec, 0x73, 0xc9, 0xbd, 0xf7, 0xc2, 0x5d, 0xdd,
  0xd6, 0x55, 0xca, 0xe8, 0x4f, 0xbc, 0x9e, 0x62, 0x5b, 0xe8, 0x51, 0x4f,
  0x47, 0xf4, 0x97, 0x3b, 0x19, 0x3b, 0xe4, 0x12, 0x28, 0xc9, 0x94, 0x58,
  0x6a, 0x3e, 0x6f, 0xcf, 0xba, 0x1e, 0x93, 0x41, 0xcc, 0xc7, 0xac, 0xc4,
  0x30, 0x52, 0xf1, 0xe8, 0xcf, 0xc1, 0x52, 0xc7, 0x38, 0xca, 0x07, 0xfd,
  0x64, 0x2b, 0x1f, 0x6b, 0x1a, 0x94, 0x69, 0xa9, 0xc0, 0x4d, 0x5a, 0xc3,
  0xa6, 0xa8, 0xa2, 0xbf, 0x37, 0x5a, 0x9f, 0x69, 0x54, 0x29, 0xff, 0x69,
  0xf3, 0x75, 0xd0, 0xba, 0x2c, 0x93, 0x91, 0xc5, 0x88, 0xe7, 0x4f, 0xcc,
  0x06, 0x6e, 0xd8, 0x46, 0x0c, 0xb1, 0xad, 0x18, 0x0c, 0x65, 0xa4, 0x96,
  0xae, 0x50, 0xfe, 0xcd, 0xb3, 0x53, 0x3e, 0xab, 0x99, 0xd4, 0x41, 0x5d,
  0x6a, 0x39, 0xd1, 0xf5, 0xae, 0x99, 0x97, 0x19, 0xb9, 0x41, 0xd9, 0x29,
  0xcd, 0x73, 0x2a, 0x92, 0xe3, 0xef, 0x71, 0x0a, 0xf8, 0x85, 0xf7, 0x84,
  0x27, 0x82, 0x03, 0xf0, 0xe0, 0xb6, 0x91, 0x1f, 0x66, 0x8f, 0x38, 0x0e,
  0x20, 0xcc, 0x90, 0xda, 0xd4, 0xf3, 0x5a, 0x56, 0xbb, 0x5f, 0x4d, 0x88,
  0x0b, 0x55, 0x04, 0xe1, 0xf4, 0xfa, 0x67, 0xea, 0x28, 0xc2, 0x70, 0x8c,
  0xe7, 0xb0, 0x4a, 0x4d, 0x1b, 0xac, 0x23, 0xd1, 0x92, 0xbb, 0x31, 0x54,
  0x4e, 0xba, 0xb7, 0x6d, 0xc6, 0xf0, 0x7e, 0x4d, 0x0d, 0x25, 0x23, 0x40,
  0xc5, 0xc6, 0xf0, 0x2a, 0xc8, 0x16, 0x4b, 0x3b, 0x26, 0xb0, 0x87, 0x9c,
  0x91, 0x9c, 0xc6, 0xa6, 0x10, 0x63, 0x8d, 0x33, 0xad, 0x65, 0x2e, 0x93,
  0x92, 0x0d, 0x22, 0x20, 0xd3, 0xbb, 0xa6, 0xad, 0xa2, 0x14, 0x61, 0x6a,
  0x66, 0xd3, 0xbb, 0x8d, 0xee, 0xfb, 0xa1, 0xcd, 0x9d, 0xc9, 0xda, 0xd1,
  0x48, 0x4a, 0xa8, 0x34, 0x9c, 0x42, 0x4f, 0xd2, 0xd9, 0xc8, 0x41, 0x42,
  0x31, 0x49, 0x03, 0xf1, 0x36, 0x85, 0x38, 0xc6, 0xec, 0xb5, 0x64, 0xdb,
  0xb2, 0x8d, 0x1a, 0x36, 0x0f, 0x56, 0x2c, 0x22, 0x55, 0x61, 0xe4, 0x06,
  0x29, 0x87, 0x13, 0x5a, 0x12, 0x57, 0xd3, 0x23, 0x10, 0xa6, 0xf0, 0xfe,
  0x0f, 0x76, 0x6a, 0xd7, 0x39, 0xc6, 0x9f, 0x17, 0x31, 0x41, 0x02, 0xee,
  0x4d, 0x6e, 0x39, 0x94, 0x8f, 0xa7, 0x03, 0x24, 0x32, 0xe4, 0x94, 0x1f,
  0x53, 0x1f, 0x3f, 0x21, 0x85, 0x96, 0x8b, 0xbc, 0xbc, 0x9c, 0xbc, 0xa5,
  0x5f, 0x9a, 0xcd, 0x19, 0x8c, 0x45, 0xef, 0x56, 0xb2, 0xff, 0x13, 0x60,
  0x1c, 0x83, 0x34, 0xb5, 0x82, 0x35, 0x9a, 0x50, 0xd8, 0x23, 0x1b, 0x71,
  0xeb, 0xfe, 0x6e, 0x68, 0xbd, 0x0f, 0x53, 0x89, 0x06, 0x29, 0x36, 0xef,
  0x5f, 0x62, 0xae, 0x48, 0xa1, 0x02, 0xf4, 0x89, 0x9c, 0xf4, 0xe3, 0xbb,
  0xca, 0x51, 0x53, 0x11, 0x5a, 0xee, 0x74, 0x4d, 0x0e, 0xe3, 0x5c, 0x6e,
  0x90, 0xc4, 0xab, 0xba, 0xff, 0x1a, 0x47, 0x06, 0x16, 0xbc, 0x35, 0x24,
  0x2b, 0xa5, 0x32, 0x3a, 0x87, 0xc4, 0xc5, 0x2d, 0x09, 0x22, 0x56, 0x10,
  0xbd, 0xde, 0x0d, 0xb8, 0xc1, 0x61, 0xae, 0xbc, 0x1b, 0x68, 0xd0, 0x31,
  0x0b, 0xbc, 0x59, 0x30, 0x00, 0xc6, 0x3d, 0xed, 0x08, 0x58, 0x53, 0xb8,
  0xd3, 0x50, 0x1e, 0x07, 0x09, 0x27, 0x36, 0xe2, 0xfd, 0xc1, 0x47, 0xe8,
  0x09, 0x1e, 0x09, 0xbe, 0x1f, 0x25, 0x33, 0xfd, 0xf2, 0x4f, 0xfe, 0xea,
  0xd2, 0x0f, 0x46, 0xfc, 0x23, 0xe4, 0x51, 0xc1, 0x29, 0xcc, 0x47, 0x49,
  0x23, 0x1f, 0x02, 0x2b, 0xce, 0x27, 0x4a, 0x27, 0x07, 0xfc, 0xce, 0xb9,
  0x48, 0xd7, 0x12, 0x06, 0x29, 0xe4, 0x26, 0xfa, 0x7e, 0x3b, 0x1c, 0x35,
  0x16, 0x25, 0x63, 0x29, 0x07, 0x0c, 0x01, 0xce, 0x01, 0x11, 0xf7, 0xe8,
  0xfb, 0xf8, 0x0e, 0x37, 0x02, 0x03, 0x25, 0x4b, 0x7f, 0xf7, 0xd9, 0x0e,
  0x2f, 0xcd, 0x6e, 0x36, 0x18, 0xf9, 0x50, 0x5d, 0x73, 0x3a, 0xe4, 0xba,
  0xfb, 0x56, 0x75, 0xfe, 0x0a, 0xb7, 0xdb, 0x0e, 0x3a, 0x19, 0xe1, 0xcd,
  0x20, 0xe1, 0x5a, 0xd1, 0x21, 0xb6, 0x06, 0xf4, 0x6f, 0xf0, 0x37, 0xdb,
  0xdd, 0x61, 0x16, 0xcd, 0xfd, 0x06, 0x1d, 0xc5, 0x49, 0x3f, 0x03, 0x30,
  0xdd, 0xe1, 0xf8, 0xf9, 0xda, 0xd7, 0xe6, 0xd7, 0x0f, 0xcc, 0xdb, 0x12,
  0x20, 0x52, 0x35, 0x4c, 0x1d, 0x4f, 0x3c, 0x6b, 0x5e, 0x51, 0x40, 0x38,
  0xe6, 0x06, 0x2c, 0xf5, 0x3a, 0xfb, 0x0d, 0x3d, 0x25, 0xd9, 0xcf, 0x49,
  0xe2, 0x56, 0x0e, 0xe5, 0xfa, 0x01, 0x03, 0x0e, 0x18, 0xfb, 0xd7, 0xea,
  0x16, 0x24, 0xeb, 0xfe, 0xf5, 0xea, 0x3a, 0x69, 0x33, 0x13, 0xb8, 0xbd,
  0xe7, 0x0f, 0xc3, 0x3c, 0xba, 0x4b, 0xa3, 0x27, 0x10, 0xf8, 0xfe, 0x34,
  0x84, 0xfa, 0xd6, 0x4c, 0x24, 0x48, 0x02, 0x2e, 0xc6, 0x3b, 0x09, 0x17,
  0x89, 0x21, 0xc0, 0x4d, 0xee, 0xdb, 0x08, 0x1c, 0xb4, 0xd1, 0xc7, 0x18,
  0xb1, 0xe7, 0xb3, 0x01, 0xd2, 0xfc, 0x81, 0xf6, 0xbd, 0x43, 0x05, 0x40,
  0x98, 0x01, 0xef, 0x46, 0xfb, 0xe7, 0xde, 0x50, 0x0b, 0x45, 0xf2, 0xd1,
  0xbb, 0xca, 0xe5, 0x4e, 0x25, 0x43, 0xf6, 0xca, 0xd2, 0x0f, 0xd4, 0x25,
  0x88, 0xe8, 0xe5, 0xea, 0x41, 0xf7, 0x8e, 0xe6, 0x49, 0x3d, 0x33, 0x32,
  0x10, 0x33, 0xe9, 0xe3, 0x26, 0x12, 0x8f, 0xd4, 0x31, 0x50, 0x52, 0xc8,
  0xa2, 0x05, 0xd0, 0x26, 0xde, 0x2b, 0xfa, 0x2a, 0xe9, 0xf0, 0x2c, 0xbc,
  0xbb, 0x2a, 0x17, 0x1f, 0xf3, 0x44, 0xa7, 0x25, 0x07, 0xc1, 0x30, 0xdf,
  0x9d, 0xf6, 0xe4, 0xeb, 0xf9, 0xd7, 0xfe, 0xbe, 0x48, 0x1b, 0xc2, 0xe1,
  0xa3, 0xdc, 0x66, 0x30, 0x40, 0x44, 0x9f, 0x1c, 0x21, 0xe4, 0xc9, 0x09,
  0x14, 0xda, 0x6c, 0xc2, 0x16, 0x07, 0xe3, 0xce, 0x28, 0x4a, 0x0a, 0x16,
  0x12, 0x05, 0x71, 0x3d, 0xc0, 0x01, 0x2b, 0x08, 0x41, 0x33, 0x3e, 0xe2,
  0xf7, 0x51, 0xe6, 0xef, 0x02, 0xdd, 0x3d, 0xc0, 0x2d, 0x48, 0xf6, 0x4b,
  0x1a, 0xf9, 0xf1, 0xf7, 0x34, 0xbc, 0x03, 0x2d, 0x39, 0x0b, 0xff, 0x35,
  0x06, 0xd7, 0x4f, 0x1f, 0xd3, 0xbe, 0x45, 0xbc, 0x15, 0xdf, 0xf8, 0xe1,
  0x1d, 0xd1, 0x43, 0x28, 0xcb, 0x44, 0xe9, 0x3e, 0xea, 0xdd, 0xe5, 0x06,
  0x07, 0xdc, 0x75, 0xda, 0xf0, 0xed, 0x5c, 0xd9, 0x2e, 0xd6, 0xc1, 0x15,
  0x24, 0x34, 0x4a, 0xfe, 0x49, 0x19, 0x3d, 0xc8, 0x3f, 0x4b, 0x36, 0xca,
  0x30, 0xf4, 0x04, 0xfa, 0x4a, 0x27, 0x2f, 0xba, 0x09, 0x41, 0xe7, 0xf5,
  0x5c, 0x46, 0x58, 0xba, 0x0d, 0x49, 0x3b, 0xd0, 0x00, 0x4d, 0xcd, 0x3b,
  0x4c, 0xf5, 0xe1, 0x1c, 0xe3, 0xd4, 0xeb, 0xe9, 0x42, 0x19, 0xbe, 0xc6,
  0x23, 0x25, 0x41, 0x37, 0x25, 0x05, 0x0e, 0x48, 0x11, 0x43, 0x51, 0xef,
  0xf7, 0x0c, 0x18, 0xf9, 0x0f, 0xbb, 0x64, 0x21, 0xb1, 0xf8, 0x1f, 0x32,
  0x62, 0xea, 0xfd, 0x46, 0xfc, 0x34, 0xd9, 0x41, 0xb2, 0xce, 0xdd, 0x34,
  0xe8, 0x46, 0xc2, 0x10, 0xc9, 0x4b, 0xe8, 0x25, 0xc8, 0xd4, 0x1b, 0xf0,
  0xe1, 0x08, 0xb3, 0x49, 0xce, 0x35, 0xd5, 0x2d, 0x3b, 0xea, 0xc9, 0x07,
  0xc3, 0xe1, 0xcb, 0xc8, 0xf3, 0xf7, 0x0b, 0xf7, 0x16, 0x48, 0xe8, 0xfa,
  0xa2, 0x33, 0xc7, 0x1a, 0x49, 0x2a, 0xf5, 0xed, 0x15, 0x0e, 0xbf, 0x0a,
  0x1a, 0x1b, 0xe2, 0x36, 0xd0, 0xdf, 0x1d, 0xee, 0x29, 0x11, 0xc1, 0x4b,
  0xe0, 0x66, 0xd5, 0x15, 0x4f, 0xf5, 0xb0, 0x0d, 0x11, 0xec, 0x43, 0xd6,
  0xe3, 0x24, 0x33, 0xb7, 0x4c, 0xfa, 0xfd, 0x2f, 0xf6, 0xcf, 0x2c, 0x1b,
  0x9d, 0x2b, 0x15, 0x09, 0x3d, 0xc7, 0xf0, 0x35, 0x5f, 0xed, 0x44, 0x4f,
  0xd0, 0x1c, 0x4a, 0xcc, 0x49, 0x2a, 0x09, 0x23, 0x65, 0xc2, 0x41, 0xec,
  0xa6, 0x0a, 0x59, 0xc1, 0x03, 0x17, 0x95, 0xff, 0x22, 0x3a, 0x12, 0x1b,
  0x8e, 0x1c, 0xeb, 0xfe, 0x32, 0x1a, 0x97, 0x2a, 0xd0, 0xe1, 0x1f, 0x3f,
  0x11, 0x2c, 0x0e, 0xea, 0x51, 0xfc, 0x12, 0x58, 0xd7, 0xba, 0xff, 0xd7,
  0xb5, 0x5f, 0x60, 0xca, 0xff, 0x16, 0x17, 0xff, 0x5f, 0x3f, 0xf5, 0xc0,
  0x04, 0x55, 0x64, 0x2a, 0xed, 0x03, 0xb9, 0x2d, 0x1d, 0xeb, 0xd3, 0x16,
  0xd9, 0xf8, 0xff, 0xc4, 0x16, 0x09, 0x22, 0xd2, 0xf7, 0xc6, 0xbe, 0xc7,
  0x49, 0xfa, 0xd4, 0x08, 0x1d, 0xe6, 0x21, 0x46, 0x5c, 0x33, 0x3f, 0x3b,
  0x14, 0xce, 0xfe, 0xfc, 0x13, 0xff, 0x37, 0x53, 0x38, 0xd5, 0x25, 0x44,
  0x00, 0x0a, 0xd5, 0x43, 0xfa, 0xcd, 0x30, 0xfc, 0xf4, 0x2b, 0x42, 0xf8,
  0x0a, 0x07, 0x13, 0x2d, 0xfb, 0xf8, 0x5d, 0x3c, 0xe0, 0x14, 0x5d, 0x4e,
  0xe5, 0xbe, 0x1b, 0x5e, 0x41, 0x32, 0x54, 0xe4, 0xde, 0x71, 0xdb, 0x10,
  0x31, 0x1f, 0xd1, 0x0a, 0xee, 0x72, 0x4a, 0xf8, 0xda, 0x38, 0xe1, 0x40,
  0xf0, 0x32, 0xbe, 0xff, 0x5e, 0x50, 0x30, 0x23, 0xcc, 0x1e, 0x3f, 0x38,
  0x2c, 0xec, 0x33, 0x50, 0xff, 0x52, 0xde, 0xfc, 0x13, 0x34, 0x6f, 0xee,
  0xd8, 0xed, 0x12, 0xe1, 0xe4, 0x40, 0xe0, 0xe4, 0x42, 0x3c, 0x6a, 0x62,
  0x2b, 0xee, 0xf9, 0x4d, 0x34, 0x48, 0x41, 0xb2, 0xbb, 0x30, 0x20, 0x42,
  0x27, 0xf6, 0x3f, 0x1e, 0x66, 0xe1, 0x18, 0x09, 0xfb, 0x14, 0x14, 0x38,
  0x77, 0x0f, 0x19, 0x47, 0xe3, 0xff, 0xf0, 0xb1, 0x00, 0x47, 0xd8, 0xdb,
  0x17, 0xf0, 0x2c, 0x07, 0x1b, 0x3f, 0x2c, 0x13, 0x57, 0x60, 0x1c, 0x1f,
  0x2c, 0x40, 0x4f, 0xd8, 0x3c, 0xe1, 0x55, 0xcc, 0xfe, 0x22, 0xd4, 0x3e,
  0x33, 0xd4, 0x0a, 0x72, 0x17, 0x14, 0xf9, 0x38, 0xd7, 0x53, 0x41, 0x58,
  0x0e, 0x11, 0xd7, 0xe0, 0x20, 0x59, 0x52, 0x38, 0x24, 0xd5, 0xf7, 0x2b,
  0xef, 0x3c, 0xcc, 0x12, 0x2f, 0x0d, 0x49, 0x35, 0x2e, 0x2c, 0xf5, 0xff,
  0x1c, 0xe9, 0x07, 0xdc, 0x0a, 0xe1, 0x10, 0x2e, 0xe2, 0x02, 0x67, 0x37,
  0xf7, 0x17, 0xfb, 0x29, 0xed, 0x00, 0x70, 0xe5, 0x74, 0x44, 0x14, 0x59,
  0x4c, 0x0b, 0x29, 0x68, 0x3f, 0x3f, 0x47, 0xec, 0x7f, 0x3e, 0x27, 0x22,
  0xe0, 0xcf, 0xfb, 0xd5, 0x10, 0x59, 0x6b, 0x08, 0x65, 0x26, 0xf3, 0xde,
  0x20, 0x0c, 0x13, 0x5c, 0xdb, 0x37, 0x33, 0xc6, 0x45, 0x0f, 0x6c, 0x28,
  0x40, 0x36, 0xf4, 0x0d, 0x43, 0x6d, 0xed, 0xba, 0x72, 0x08, 0x4d, 0xe7,
  0x4d, 0xfc, 0x7a, 0x4a, 0x39, 0x13, 0xcc, 0xd7, 0x1d, 0x6b, 0x55, 0x68,
  0x35, 0x45, 0x32, 0x67, 0x0b, 0x22, 0x10, 0x03, 0x4a, 0x36, 0x14, 0x64,
  0xfb, 0xc3, 0x1a, 0x58, 0x4b, 0x25, 0xdf, 0xb4, 0x07, 0x44, 0x4c, 0x53,
  0x0b, 0x37, 0xe0, 0x2f, 0x24, 0x0d, 0x33, 0xb9, 0xf2, 0x07, 0x1a, 0xf2,
  0xde, 0xc0, 0x56, 0xeb, 0x4f, 0x1e, 0xd2, 0xc9, 0xd2, 0xfb, 0xed, 0x51,
  0x14, 0xd5, 0x21, 0x45, 0xe6, 0x14, 0x3e, 0xb8, 0x48, 0x13, 0x6f, 0xf7,
  0x0f, 0x46, 0xdc, 0xf8, 0xe9, 0x0e, 0x4e, 0xcd, 0x28, 0x0f, 0x55, 0x07,
  0x3d, 0xe7, 0x14, 0x00, 0x39, 0x47, 0xf2, 0x07, 0x35, 0x46, 0x30, 0xda,
  0x13, 0xc1, 0xd0, 0x2b, 0x2e, 0x47, 0x41, 0xbe, 0x08, 0x4f, 0x5c, 0x00,
  0x1b, 0xee, 0x05, 0x19, 0xfe, 0x46, 0xd6, 0xdf, 0xe4, 0x00, 0x56, 0x56,
  0x17, 0x08, 0xbf, 0xea, 0x47, 0x5e, 0xb3, 0xdc, 0x18, 0x5b, 0x57, 0x71,
  0xfb, 0x4a, 0xda, 0x47, 0x34, 0xed, 0xe3, 0x48, 0xec, 0xe9, 0x27, 0x64,
  0x25, 0xdd, 0xfb, 0x1c, 0x46, 0xfa, 0xb5, 0x32, 0xb1, 0x52, 0x52, 0xed,
  0x22, 0x35, 0xbc, 0x52, 0x5e, 0xf1, 0x18, 0x58, 0xf6, 0x1a, 0x1b, 0xd9,
  0x39, 0x21, 0xdb, 0x02, 0x68, 0xe9, 0x04, 0x4b, 0xc4, 0x5e, 0x2f, 0xe4,
  0xbe, 0xf8, 0x01, 0x6f, 0x54, 0x69, 0x1e, 0x29, 0x09, 0xec, 0x41, 0xec,
  0xb2, 0x41, 0xe2, 0x00, 0x52, 0xd4, 0x02, 0xc7, 0x3d, 0x72, 0xdb, 0x16,
  0xb5, 0x59, 0x30, 0x61, 0x6d, 0x5c, 0xbf, 0xe8, 0x47, 0x2e, 0x22, 0x3c,
  0x0b, 0xe0, 0x51, 0x03, 0x39, 0x09, 0xd0, 0xd8, 0x39, 0x16, 0x70, 0xea,
  0xb8, 0x0d, 0x4d, 0x44, 0x43, 0xfc, 0x43, 0xc1, 0xf5, 0x38, 0x63, 0x39,
  0x36, 0xfb, 0xe4, 0xd2, 0x16, 0x57, 0x0d, 0xd4, 0x37, 0xf1, 0xf1, 0x59,
  0xce, 0xce, 0x22, 0x64, 0x34, 0x25, 0x43, 0x03, 0xea, 0x4c, 0xde, 0xdc,
  0xc1, 0xdb, 0x53, 0x0f, 0x2e, 0x67, 0x3e, 0xb2, 0x3b, 0x41, 0x17, 0x5e,
  0x54, 0xaf, 0x1f, 0x60, 0x4b, 0xf8, 0x0a, 0x1e, 0xe8, 0x64, 0x18, 0x37,
  0xd3, 0xb7, 0xe5, 0x6f, 0xd6, 0x3e, 0xfc, 0xe1, 0x56, 0xe9, 0x1c, 0x1c,
  0x29, 0x27, 0x3d, 0x07, 0x1d, 0x1c, 0xcc, 0x20, 0x1f, 0xee, 0x6b, 0xe1,
  0xcf, 0x18, 0x44, 0x07, 0xf6, 0x5c, 0x17, 0xd4, 0x62, 0xdd, 0x27, 0x09,
  0x32, 0xdd, 0x2a, 0xda, 0x5c, 0x56, 0x58, 0xb5, 0x08, 0x2d, 0x14, 0x5e,
  0xea, 0x2d, 0xd8, 0x44, 0x5a, 0xe2, 0x06, 0xcb, 0xf8, 0x5f, 0x58, 0xfd,
  0xd3, 0xc8, 0xe7, 0x5f, 0x15, 0x67, 0xea, 0x15, 0x5d, 0x02, 0x02, 0xdb,
  0xed, 0xdf, 0x44, 0x22, 0xdd, 0xf8, 0xf7, 0xb3, 0x5b, 0x41, 0x24, 0xe4,
  0xc9, 0x29, 0x20, 0xf5, 0xf0, 0x55, 0xc7, 0xe2, 0x53, 0x52, 0x66, 0x3e,
  0x33, 0x0b, 0x19, 0x3b, 0x2c, 0xdc, 0x51, 0x17, 0x74, 0x1b, 0x6f, 0x15,
  0xe1, 0x2f, 0x1e, 0x1b, 0x20, 0xdc, 0xf6, 0x25, 0x38, 0xeb, 0x51, 0x6b,
  0x39, 0xeb, 0x31, 0x3c, 0x30, 0x5e, 0xe1, 0xf8, 0x0c, 0xff, 0x6e, 0xe9,
  0x00, 0xc6, 0xd1, 0x52, 0xfc, 0x50, 0xd0, 0xb1, 0xef, 0xd9, 0xe7, 0x13,
  0x2f, 0xcf, 0xc6, 0xee, 0xd7, 0xeb, 0x06, 0xc7, 0xbd, 0x3b, 0xed, 0x6f,
  0x42, 0x08, 0x34, 0x65, 0x4f, 0xf1, 0xc0, 0x20, 0xbf, 0x1d, 0xea, 0xe3,
  0xe6, 0x5e, 0x25, 0x0c, 0xe0, 0xfd, 0xe9, 0x30, 0x0a, 0x2e, 0x18, 0x27,
  0x59, 0xe2, 0x42, 0xd4, 0x62, 0x0c, 0x65, 0xd9, 0x38, 0xfd, 0x1d, 0xdc,
  0xf9, 0x01, 0x36, 0x11, 0xb5, 0x49, 0x0d, 0x00, 0x53, 0xcc, 0xee, 0x25,
  0x4f, 0xd3, 0xee, 0x20, 0xa7, 0xd9, 0xc5, 0x35, 0x4a, 0xbd, 0xaa, 0x30,
  0xe4, 0x3c, 0x4d, 0xae, 0x38, 0xdd, 0xea, 0x33, 0x4e, 0xd2, 0xe6, 0xb9,
  0xe2, 0x35, 0x62, 0x2c, 0x3c, 0xb5, 0xe2, 0x55, 0xcd, 0x49, 0x10, 0x49,
  0x0c, 0x45, 0x2d, 0x1d, 0xcd, 0x0e, 0xbe, 0x72, 0x01, 0x04, 0x1f, 0x16,
  0x09, 0x38, 0x06, 0xa9, 0xe9, 0x06, 0x08, 0x2f, 0x5b, 0x3c, 0xc7, 0x1c,
  0x25, 0x12, 0x31, 0x29, 0xb4, 0xc6, 0x9d, 0x1f, 0xc3, 0xeb, 0xfa, 0xa8,
  0xf6, 0x18, 0x2d, 0x0f, 0xe4, 0xfc, 0xb0, 0x42, 0x46, 0x44, 0xba, 0xb6,
  0x9a, 0x1d, 0x65, 0x22, 0xa1, 0xe9, 0x0c, 0xe0, 0x16, 0xab, 0x0c, 0x48,
  0xef, 0xde, 0x0c, 0x00, 0xd0, 0xea, 0x0e, 0x46, 0x1f, 0xa9, 0xd5, 0xcf,
  0xc2, 0xf6, 0xd6, 0xd1, 0x22, 0xf2, 0xfe, 0x3c, 0x5d, 0x41, 0xd1, 0xf5,
  0xff, 0x46, 0x1f, 0xf9, 0x19, 0xc7, 0x96, 0x72, 0xec, 0xec, 0x26, 0x1a,
  0x15, 0x4a, 0xfa, 0xff, 0x45, 0x01, 0xb8, 0x53, 0x3a, 0x2f, 0xd0, 0xe9,
  0xe7, 0x25, 0x5e, 0xb5, 0x2c, 0xe3, 0xa2, 0xff, 0xd1, 0xae, 0xa9, 0xb1,
  0x0f, 0xe9, 0xd1, 0xfa, 0xb8, 0x0c, 0xd2, 0x20, 0xfd, 0x41, 0xe5, 0xcc,
  0xa9, 0x38, 0xfc, 0xfe, 0xb6, 0xfa, 0x99, 0x0c, 0x30, 0x12, 0x23, 0xd9,
  0x2d, 0xdb, 0xb4, 0x01, 0x40, 0xc5, 0xcc, 0x29, 0x9c, 0x27, 0x17, 0x33,
  0xb3, 0x24, 0x34, 0x3d, 0x1a, 0xc8, 0xb5, 0xe4, 0xb3, 0x18, 0x1b, 0xfd,
  0xd0, 0x3b, 0xd3, 0xf1, 0x19, 0x19, 0xc1, 0x34, 0x02, 0xfd, 0xbe, 0xaa,
  0x3f, 0x35, 0x92, 0xda, 0xcf, 0x46, 0x3c, 0xe0, 0xd7, 0x0c, 0xc6, 0xdb,
  0xfc, 0x24, 0x0f, 0xb8, 0xf3, 0x49, 0x31, 0x7f, 0x06, 0x38, 0xc7, 0x00,
  0xfd, 0xe8, 0x03, 0x2b, 0x25, 0x26, 0x39, 0x0e, 0xef, 0xcb, 0x3a, 0x05,
  0xfd, 0x6e, 0x12, 0xa4, 0x46, 0xb2, 0x39, 0x33, 0xbc, 0xf3, 0x36, 0xdd,
  0xa3, 0x36, 0xc4, 0x25, 0xe5, 0xb4, 0x0f, 0xe3, 0x16, 0xa0, 0xce, 0xc3,
  0x02, 0xfd, 0xb9, 0xab, 0xb0, 0x15, 0xcf, 0x7c, 0x36, 0x18, 0x14, 0x14,
  0xfb, 0xe9, 0x40, 0x3b, 0xb1, 0x9f, 0x02, 0x03, 0xca, 0xe0, 0x41, 0x0f,
  0x1c, 0xeb, 0x58, 0xae, 0xc8, 0x12, 0xc4, 0x2d, 0xda, 0x3a, 0x04, 0xb8,
  0xb1, 0x06, 0x60, 0xdd, 0x30, 0xd9, 0xfb, 0x34, 0xef, 0xb0, 0x02, 0xf1,
  0x9d, 0x58, 0x18, 0xbb, 0x2f, 0xfd, 0xe6, 0x32, 0x54, 0xc8, 0xaa, 0x34,
  0x45, 0xff, 0x00, 0xd5, 0x02, 0x2a, 0xc2, 0x03, 0x4b, 0xb6, 0xfd, 0x08,
  0x9e, 0x47, 0x55, 0xce, 0xa4, 0xc1, 0x17, 0x1d, 0x52, 0xac, 0xff, 0x40,
  0xcc, 0xd5, 0x30, 0xa7, 0x29, 0xea, 0x38, 0x61, 0x19, 0xc0, 0x22, 0xbc,
  0x9d, 0x1e, 0x57, 0xc2, 0xfa, 0xf9, 0xf9, 0x4d, 0x14, 0xd8, 0xdf, 0x17,
  0x2c, 0xd7, 0x3e, 0xcb, 0x49, 0x29, 0xe3, 0xe8, 0x30, 0x00, 0x08, 0xc8,
  0x40, 0x6a, 0xbf, 0xd3, 0xd0, 0xd0, 0x39, 0xff, 0xe8, 0x35, 0xb6, 0xab,
  0x07, 0xe4, 0x15, 0xe4, 0x21, 0xf3, 0x9f, 0x40, 0x4d, 0xe2, 0xa9, 0xcc,
  0xdd, 0x67, 0x0c, 0x2d, 0xa1, 0xc7, 0x3d, 0x5e, 0x1e, 0x36, 0xb4, 0x20,
  0xb1, 0xb9, 0xe6, 0x11, 0xa7, 0x2d, 0xae, 0x5a, 0xcb, 0x1f, 0xc2, 0xcc,
  0x03, 0x41, 0xd4, 0xb7, 0xe7, 0xa6, 0xb5, 0xce, 0xb4, 0xfb, 0xde, 0xdd,
  0x34, 0x5b, 0xf3, 0xae, 0x0b, 0x0d, 0xf5, 0x10, 0x0a, 0xd8, 0xe1, 0xac,
  0xa8, 0xd5, 0x25, 0xf6, 0xf6, 0xf7, 0xd6, 0x12, 0xec, 0xd9, 0x28, 0xa2,
  0xcf, 0xe2, 0x04, 0xe5, 0xe5, 0x22, 0x01, 0x51, 0x1a, 0x2e, 0x00, 0xc7,
  0xa3, 0xf5, 0xd9, 0xb2, 0x3f, 0x30, 0x05, 0x25, 0x9f, 0xb2, 0x05, 0xf7,
  0xba, 0xd6, 0x33, 0xb9, 0xdc, 0xd8, 0xf9, 0xcc, 0xbc, 0xd2, 0x28, 0xcd,
  0x40, 0x26, 0xf4, 0x3e, 0xea, 0x3e, 0xf6, 0x34, 0x11, 0xd9, 0x12, 0x3a,
  0x2f, 0x32, 0x0f, 0xb7, 0x3d, 0xe4, 0xd2, 0x03, 0x1b, 0xa1, 0xc7, 0xfd,
  0x4b, 0x00, 0x22, 0xea, 0x44, 0x24, 0xb2, 0xc1, 0xf4, 0xfd, 0x3b, 0xf8,
  0x42, 0xd4, 0x12, 0x0c, 0x3d, 0xe2, 0xa8, 0xf2, 0x54, 0x2e, 0xd1, 0xf2,
  0xd3, 0x62, 0x06, 0x04, 0x31, 0xa6, 0xdd, 0x4a, 0x49, 0xfa, 0x1c, 0xd6,
  0xed, 0x35, 0x0c, 0x49, 0xad, 0x40, 0xf4, 0x58, 0x12, 0xa4, 0x39, 0xb5,
  0x2b, 0x2e, 0x30, 0x22, 0x46, 0xfc, 0xc8, 0x41, 0x40, 0xcf, 0x42, 0x0e,
  0xb6, 0x19, 0xb9, 0x48, 0x1a, 0x15, 0x09, 0x4d, 0x26, 0xd1, 0x9f, 0xaa,
  0x2a, 0x16, 0xea, 0x26, 0xbb, 0xd4, 0xcc, 0xd4, 0xd8, 0xf2, 0xe5, 0xc5,
  0x41, 0xe0, 0xe6, 0xcd, 0x06, 0xac, 0xe8, 0x64, 0xbb, 0x36, 0xf2, 0x43,
  0xc3, 0x6e, 0x39, 0x1c, 0xa5, 0xfb, 0xf4, 0x21, 0xe9, 0xe5, 0x3a, 0x0c,
  0x1b, 0x28, 0xdb, 0xd0, 0x3c, 0x48, 0xf0, 0x20, 0x5b, 0x42, 0xda, 0x3c,
  0xac, 0x5f, 0x66, 0xe6, 0xb2, 0x2c, 0x3f, 0x58, 0xf8, 0x45, 0xa6, 0xa1,
  0xa2, 0x48, 0x19, 0x3a, 0xcf, 0x22, 0x16, 0xe8, 0x23, 0x04, 0x43, 0xc3,
  0x0b, 0x39, 0xcc, 0x43, 0xb4, 0x41, 0xb3, 0x33, 0x00, 0x40, 0xab, 0xe3,
  0xad, 0x53, 0x27, 0xbf, 0x3c, 0xe4, 0xc9, 0x02, 0xb9, 0xef, 0xd9, 0x08,
  0xde, 0x68, 0xc8, 0x36, 0xd2, 0x95, 0xac, 0x90, 0xe2, 0xd9, 0xaf, 0xc3,
  0x08, 0xe8, 0x42, 0x75, 0x7e, 0xd6, 0x4f, 0x3e, 0x41, 0x8c, 0x7a, 0xcb,
  0xdf, 0x0f, 0xed, 0x06, 0xb1, 0x2f, 0x90, 0x27, 0x0b, 0xe7, 0x17, 0xfe,
  0xeb, 0xd5, 0x9f, 0x72, 0x89, 0x1c, 0xc5, 0x35, 0x9a, 0xdd, 0x02, 0x2a,
  0x64, 0x54, 0xe3, 0x5a, 0xd7, 0xd6, 0x03, 0xba, 0x85, 0x5b, 0xad, 0x6c,
  0x40, 0x9a, 0x3f, 0x01, 0x2b, 0xb0, 0x82, 0x62, 0x7f, 0x8e, 0xfd, 0xfe,
  0x8d, 0x5e, 0x91, 0xda, 0xb4, 0xd3, 0x84, 0xc5, 0x87, 0xfd, 0xbe, 0x13,
  0x09, 0x4c, 0xa3, 0xe8, 0x07, 0x5f, 0x41, 0xa6, 0xd8, 0xc7, 0xd0, 0x97,
  0x26, 0xdf, 0xc8, 0x42, 0x03, 0x42, 0x77, 0xec, 0xe4, 0xd0, 0x4d, 0xfa,
  0xfc, 0x88, 0x04, 0x67, 0x76, 0x08, 0x00, 0xfa, 0x23, 0xf7, 0x89, 0xd9,
  0x13, 0x87, 0x9e, 0xdd, 0x31, 0x44, 0x1b, 0xff, 0x39, 0x76, 0x4e, 0xc5,
  0xe7, 0xff, 0x57, 0x6f, 0x38, 0xa0, 0xa5, 0x88, 0x54, 0xa1, 0xd3, 0x52,
  0xe1, 0x46, 0x20, 0xb5, 0x25, 0x04, 0x8f, 0x28, 0xae, 0x9f, 0x31, 0x72,
  0x53, 0x74, 0xda, 0xbb, 0x41, 0x30, 0xce, 0x3d, 0x9d, 0x10, 0x8e, 0xd0,
  0x62, 0xa2, 0x67, 0x9a, 0xaa, 0x50, 0x3a, 0x4c, 0x41, 0xde, 0x5a, 0xbe,
  0xfb, 0x99, 0xf7, 0x57, 0x69, 0x7a, 0x45, 0x6a, 0xb4, 0xc3, 0x24, 0x52,
  0xbe, 0x29, 0xff, 0x34, 0xb2, 0x21, 0xf1, 0x16, 0x7e, 0x79, 0x33, 0xcc,
  0xf8, 0x8d, 0x99, 0xd2, 0x3d, 0xd5, 0x97, 0xad, 0x9f, 0x88, 0x13, 0xeb,
  0xf2, 0xdb, 0xf3, 0x0a, 0x48, 0xb2, 0x1d, 0xed, 0x43, 0xd6, 0xc1, 0x29,
  0x85, 0x2c, 0xf2, 0xde, 0xc1, 0x9c, 0xdc, 0x8f, 0xf0, 0x16, 0x6a, 0x25,
  0xef, 0xed, 0xa1, 0x5e, 0xb4, 0xe8, 0x91, 0xd8, 0xe8, 0xfa, 0x38, 0xbe,
  0xdb, 0x75, 0x10, 0xcb, 0x85, 0x15, 0xe2, 0x85, 0x76, 0x2a, 0x63, 0x95,
  0x60, 0xda, 0x79, 0xcc, 0x42, 0x48, 0x99, 0x7b, 0x2a, 0xce, 0x6c, 0xa6,
  0x51, 0x8f, 0x42, 0xb7, 0xe2, 0x3c, 0x15, 0xaa, 0xf5, 0x99, 0x50, 0x63,
  0x9c, 0x5a, 0x82, 0x81, 0x91, 0x2b, 0xd5, 0x10, 0x79, 0x8c, 0x51, 0xdf,
  0x78, 0x35, 0xf9, 0x32, 0x59, 0x6a, 0x58, 0xef, 0x13, 0xc7, 0x15, 0xf0,
  0xbf, 0x2f, 0x9d, 0xf7, 0x18, 0xfd, 0x90, 0x83, 0xc1, 0x12, 0x22, 0x73,
  0x1d, 0xbf, 0xdb, 0xe3, 0xee, 0x5b, 0x42, 0x5f, 0x83, 0xe7, 0x8a, 0x72,
  0xe3, 0x4f, 0x5b, 0x16, 0xde, 0xdf, 0x58, 0xfc, 0x1a, 0xc6, 0x74, 0x97,
  0x9a, 0x1b, 0xfd, 0xb1, 0x19, 0x6d, 0x7c, 0x84, 0xa5, 0x50, 0x59, 0x7b,
  0x50, 0xd0, 0xd2, 0x90, 0x02, 0xef, 0x7b, 0xb1, 0xe0, 0x2a, 0x17, 0xc2,
  0x6d, 0x8d, 0x66, 0xd9, 0x9f, 0x1f, 0xc0, 0x3f, 0x29, 0xd2, 0xfa, 0x97,
  0x1c, 0xc2, 0x42, 0x41, 0xe7, 0x82, 0xfd, 0x2c, 0x38, 0x9a, 0xd3, 0x33,
  0xe0, 0xc9, 0x49, 0x5b, 0x41, 0xce, 0x54, 0xff, 0xbf, 0xc9, 0x95, 0x47,
  0xb6, 0xe2, 0xf4, 0x39, 0xfd, 0x12, 0x45, 0x87, 0x0b, 0x94, 0xf4, 0xa7,
  0xa0, 0xed, 0x52, 0x14, 0x3e, 0x5e, 0xae, 0x48, 0x7d, 0xf1, 0x8c, 0x1c,
  0x24, 0x13, 0xfe, 0xb6, 0xc8, 0xb3, 0xde, 0xd6, 0x99, 0xea, 0xc4, 0x54,
  0x29, 0x6e, 0x43, 0x65, 0x0c, 0xdd, 0xae, 0x9c, 0x9d, 0x75, 0x56, 0xeb,
  0x4a, 0xc9, 0x09, 0x8b, 0x13, 0xd1, 0x98, 0xd7, 0x4a, 0x71, 0xa5, 0xf3,
  0x69, 0xbd, 0x12, 0x27, 0x8d, 0xff, 0x4f, 0x86, 0xb9, 0xe3, 0x48, 0xa3,
  0x73, 0xc1, 0xdd, 0xfd, 0x27, 0xdf, 0xab, 0xe2, 0xc4, 0xb3, 0xa6, 0x7b,
  0xf2, 0x9c, 0xda, 0x85, 0xd8, 0x87, 0xbf, 0xec, 0x53, 0x4f, 0xac, 0x05,
  0x65, 0x11, 0xfc, 0x81, 0x38, 0xdd, 0x70, 0xdd, 0x5f, 0x4f, 0xcb, 0xfd,
  0x30, 0xb2, 0x6a, 0x2c, 0x3c, 0x3d, 0x77, 0x91, 0xd5, 0xc9, 0x94, 0xe8,
  0xce, 0xcd, 0xf9, 0x92, 0xd2, 0xe1, 0xe6, 0x1e, 0xcc, 0x09, 0x78, 0x3d,
  0x4e, 0xa8, 0x12, 0x50, 0x07, 0x1f, 0x10, 0x38, 0x3c, 0x94, 0x75, 0x3d,
  0x6f, 0xa4, 0x21, 0x6e, 0x4c, 0x92, 0x87, 0x2b, 0x88, 0xcd, 0x36, 0xa0,
  0x7c, 0x6a, 0x6e, 0xd1, 0xdf, 0x53, 0xea, 0xfe, 0xf0, 0xd1, 0x02, 0xc4,
  0xfd, 0x47, 0x4f, 0x05, 0x49, 0x8d, 0xce, 0x46, 0xae, 0x74, 0xb5, 0xef,
  0x1c, 0x98, 0xbc, 0x6e, 0x2c, 0xe3, 0x1b, 0xf0, 0xc1, 0x89, 0xd1, 0x2e,
  0x2f, 0xb0, 0x67, 0x99, 0x0b, 0xd4, 0x54, 0x82, 0xca, 0xb5, 0x75, 0x05,
  0x6c, 0x34, 0x17, 0xc9, 0x79, 0xe7, 0x61, 0xc0, 0x8e, 0xf2, 0x5a, 0x15,
  0xc9, 0x90, 0xf2, 0x1b, 0xec, 0xfb, 0x01, 0x2b, 0x16, 0xf9, 0x3e, 0x5e,
  0x28, 0x4f, 0x36, 0xeb, 0x03, 0x9e, 0x48, 0xfc, 0x3c, 0x63, 0x64, 0x73,
  0xaa, 0xfa, 0x13, 0x69, 0x24, 0x99, 0x40, 0x28, 0xea, 0xe7, 0x92, 0x9d,
  0x24, 0xf1, 0xf3, 0x8f, 0x76, 0x1c, 0xdd, 0x13, 0x52, 0x49, 0x92, 0xe4,
  0x0f, 0x22, 0x3a, 0x1b, 0xb1, 0xb7, 0xca, 0x35, 0x7a, 0xbf, 0x5f, 0x37,
  0x49, 0x60, 0x32, 0x40, 0x1f, 0x0d, 0x15, 0x3f, 0xab, 0xd6, 0xee, 0xd0,
  0x49, 0xf8, 0x8e, 0xa9, 0x1a, 0x6e, 0xb5, 0xd2, 0xa7, 0x6b, 0xa9, 0x86,
  0x06, 0x0f, 0x0e, 0x39, 0x39, 0x60, 0x58, 0x2d, 0xa9, 0x3e, 0xad, 0xe4,
  0x41, 0x9f, 0x96, 0xe0, 0x39, 0x06, 0x1d, 0x48, 0xa7, 0x34, 0x69, 0x22,
  0xce, 0x98, 0xff, 0x05, 0x56, 0x47, 0x83, 0xcf, 0xf8, 0xb5, 0x33, 0x29,
  0x5c, 0xde, 0x4e, 0xc8, 0x46, 0xfe, 0x68, 0xe7, 0x83, 0x14, 0x4e, 0x49,
  0x0b, 0xe3, 0xba, 0x12, 0x46, 0x30, 0xb2, 0x23, 0xad, 0xd1, 0x77, 0x16,
  0x31, 0x1e, 0xde, 0x46, 0xc9, 0xd9, 0x6c, 0x8a, 0x1c, 0x45, 0xa7, 0x11,
  0xd0, 0xc9, 0xac, 0xdb, 0x30, 0xc4, 0xd3, 0xc5, 0xb1, 0xd7, 0xaf, 0xb4,
  0x7f, 0xa0, 0xf1, 0x7a, 0x3d, 0x7b, 0x26, 0x6a, 0xce, 0x8a, 0xa2, 0x98,
  0x58, 0x6d, 0xa2, 0x4b, 0x54, 0x97, 0x53, 0xe3, 0x67, 0x56, 0xc3, 0x1f,
  0x1f, 0xf1, 0x67, 0xdc, 0x57, 0x6a, 0x1e, 0xec, 0xf3, 0x3d, 0xf0, 0x5a,
  0x65, 0xdc, 0x95, 0x52, 0xc9, 0x46, 0xd5, 0xbe, 0x6b, 0x9a, 0xd6, 0xe3,
  0x3a, 0xf5, 0xf7, 0x69, 0x43, 0xf8, 0xd3, 0xe6, 0x9a, 0x21, 0xf7, 0x08,
  0x88, 0xce, 0xc3, 0x06, 0xe9, 0x93, 0x28, 0x3d, 0xaa, 0x7e, 0x4e, 0xd0,
  0x66, 0xa8, 0x71, 0x82, 0xdd, 0x54, 0x2f, 0xac, 0xb0, 0xe7, 0x46, 0x4a,
  0x84, 0x58, 0xdf, 0xa7, 0x22, 0x9c, 0x9d, 0x8b, 0x15, 0xe4, 0x6e, 0x20,
  0x06, 0x0d, 0xd6, 0x49, 0xc3, 0x57, 0xc5, 0x3c, 0x32, 0x5f, 0x59, 0xa1,
  0x91, 0x3b, 0xba, 0xc3, 0x24, 0x26, 0x16, 0x56, 0x63, 0xbb, 0x51, 0xe6,
  0xf3, 0xdd, 0xfe, 0x66, 0x97, 0xe0, 0xd7, 0xa7, 0x03, 0x0a, 0xa7, 0x39,
  0xff, 0xdd, 0x4b, 0xc2, 0xfc, 0x56, 0xf3, 0x36, 0x15, 0x35, 0x49, 0xe5,
  0xf9, 0xb8, 0xde, 0x8e, 0x32, 0x9c, 0x08, 0x3f, 0xe5, 0x2c, 0x3c, 0x72,
  0x4d, 0x9b, 0xd6, 0x2d, 0x2d, 0xf7, 0xd5, 0x38, 0x61, 0x1a, 0xbc, 0x14,
  0xab, 0xa1, 0xd6, 0x9d, 0x87, 0xc1, 0x1e, 0x9c, 0xd3, 0x3b, 0x0f, 0xd3,
  0xaf, 0x5e, 0x8e, 0x0c, 0xe5, 0x7f, 0x8c, 0x9a, 0x03, 0xbc, 0xe5, 0xbe,
  0x37, 0xa4, 0x64, 0x53, 0x6b, 0xdf, 0x57, 0xa0, 0xc3, 0x7b, 0x76, 0x83,
  0x24, 0x24, 0x14, 0x95, 0x63, 0x1b, 0x86, 0x84, 0x0d, 0x82, 0xd9, 0x06,
  0x08, 0xc0, 0x8f, 0x70, 0x20, 0x23, 0x68, 0xff, 0x16, 0x8b, 0x79, 0xfc,
  0x51, 0xaf, 0x27, 0x6d, 0x3d, 0xf8, 0x55, 0x78, 0xd5, 0x52, 0x65, 0x53,
  0x90, 0x5b, 0xd1, 0xc6, 0x20, 0x51, 0x92, 0xa4, 0x3f, 0x24, 0xc4, 0xb4,
  0xe7, 0x9d, 0xb9, 0x51, 0x00, 0x73, 0x54, 0xf0, 0xc6, 0x5a, 0x40, 0x53,
  0x34, 0xb3, 0x73, 0xea, 0xa9, 0x49, 0xc4, 0xe3, 0x21, 0x4a, 0xd8, 0xc7,
  0xcd, 0xb8, 0xea, 0x49, 0xae, 0xbe, 0xc6, 0x38, 0x87, 0x78, 0x57, 0xd6,
  0xbe, 0xbb, 0xfe, 0x0a, 0xf1, 0x82, 0x4c, 0x88, 0x58, 0x8e, 0x8a, 0x12,
  0x24, 0x09, 0x47, 0xe7, 0x82, 0x14, 0xfd, 0x4e, 0x34, 0x0e, 0x05, 0xf7,
  0x49, 0xb0, 0x72, 0x1c, 0x16, 0x82, 0xd4, 0x23, 0x8b, 0xfd, 0x6e, 0x4d,
  0x48, 0xe3, 0x21, 0x30, 0x3a, 0x04, 0xc4, 0x5b, 0xfc, 0x0b, 0x38, 0x0b,
  0x7c, 0xde, 0xaa, 0x2e, 0x37, 0xbb, 0x90, 0xf4, 0x28, 0xfd, 0x13, 0x23,
  0xc3, 0xc0, 0x9d, 0x62, 0xd0, 0xe7, 0xff, 0x5f, 0x0e, 0x37, 0xdb, 0x29,
  0x00, 0x0a, 0x0b, 0x29, 0xe5, 0x02, 0xec, 0x2f, 0xb9, 0x2e, 0x51, 0xc6,
  0x79, 0x17, 0xdf, 0xfa, 0xb4, 0x6b, 0xc7, 0xeb, 0x6e, 0xae, 0x3d, 0x4b,
  0x3f, 0x95, 0xfe, 0xf6, 0x1c, 0x16, 0x7c, 0xd9, 0x13, 0x08, 0x96, 0xac,
  0xf1, 0x47, 0x21, 0xa2, 0xcb, 0xba, 0xa7, 0xac, 0xcd, 0xdc, 0x3b, 0xa8,
  0x77, 0x20, 0x13, 0xfd, 0xaa, 0x94, 0x68, 0x38, 0x0f, 0x6f, 0x03, 0x43,
  0x31, 0xc3, 0xb9, 0x65, 0x0d, 0x40, 0xee, 0x79, 0x16, 0xe2, 0xd8, 0x5d,
  0x40, 0x1a, 0xd3, 0x35, 0x5c, 0x78, 0xda, 0x52, 0x51, 0x52, 0xed, 0x7a,
  0x3f, 0x41, 0xd7, 0xa1, 0x6b, 0x91, 0x5c, 0xa9, 0x6b, 0x74, 0x9b, 0x3a,
  0xeb, 0xc1, 0x9b, 0x47, 0x98, 0x55, 0xd6, 0x57, 0x14, 0xe5, 0xa3, 0xba,
  0x1d, 0xf6, 0xe7, 0x41, 0xd9, 0xb6, 0x53, 0xe7, 0x8b, 0xbc, 0x69, 0xad,
  0xda, 0xd0, 0xaa, 0xaf, 0x2e, 0xf1, 0x5b, 0xb0, 0xe6, 0x9d, 0x0d, 0x2a,
  0xf6, 0x92, 0x50, 0xa1, 0x0c, 0x41, 0xc7, 0x6a, 0x2c, 0x57, 0xa6, 0xc4,
  0x97, 0x16, 0xff, 0x65, 0x6f, 0x11, 0x34, 0x9c, 0x6e, 0x8e, 0x81, 0xae,
  0xb8, 0x54, 0xa6, 0x1a, 0xdc, 0x21, 0x99, 0x6c, 0x2c, 0x93, 0xea, 0xe3,
  0x72, 0x97, 0xa2, 0x70, 0x73, 0x18, 0xda, 0xd8, 0xa0, 0x86, 0xd5, 0x0a,
  0x2d, 0xfd, 0xa6, 0xd8, 0x3c, 0x1c, 0xba, 0xa2, 0xd5, 0x92, 0xfb, 0xfb,
  0x44, 0xf9, 0xc7, 0x2c, 0x0b, 0x5f, 0xa8, 0x8f, 0x61, 0xb4, 0x9f, 0xe7,
  0x01, 0xc4, 0xc7, 0xdb, 0x41, 0x19, 0xbe, 0x73, 0xa5, 0x1b, 0x28, 0xee,
  0x6d, 0x31, 0x35, 0x0d, 0x59, 0x15, 0xc8, 0xb7, 0x12, 0x74, 0xf3, 0xcf,
  0xaf, 0xa6, 0x15, 0xf3, 0x52, 0xc0, 0x4c, 0x9e, 0x3c, 0xfc, 0xcd, 0x51,
  0xf2, 0xee, 0xc8, 0xb9, 0x39, 0xa4, 0xe8, 0xcf, 0x85, 0xda, 0xf1, 0x67,
  0x16, 0xeb, 0xcf, 0x45, 0x41, 0xd6, 0xa0, 0xef, 0xcd, 0xac, 0x16, 0x51,
  0xf7, 0x0e, 0x3a, 0x19, 0x50, 0xc4, 0x61, 0xfc, 0xe5, 0x74, 0x31, 0x47,
  0xe7, 0x04, 0xa6, 0x9e, 0xa5, 0x79, 0xb6, 0x52, 0x77, 0xb1, 0xa4, 0xb0,
  0x64, 0x0f, 0x53, 0xf8, 0xb7, 0x36, 0x0c, 0x04, 0xf5, 0x44, 0x48, 0xc8,
  0xf4, 0x87, 0x53, 0x8e, 0xf2, 0x54, 0x87, 0xfe, 0xff, 0xc2, 0xfd, 0x07,
  0x6a, 0x16, 0xac, 0xe4, 0xa8, 0x4f, 0x3b, 0x51, 0xcc, 0xc5, 0xa2, 0xc3,
  0x69, 0x5f, 0xbf, 0xd0, 0xef, 0xdd, 0x5f, 0x8f, 0x34, 0x35, 0x49, 0x19,
  0x16, 0x42, 0xf7, 0x3c, 0xdd, 0x56, 0x9d, 0x11, 0xd2, 0x58, 0x0d, 0xd0,
  0x57, 0xad, 0x1e, 0x29, 0x3f, 0x95, 0xf3, 0x08, 0x0e, 0x08, 0x3f, 0x38,
  0xf3, 0xd7, 0x07, 0xb3, 0x9e, 0x94, 0x97, 0x0d, 0x17, 0x8c, 0x88, 0xc8,
  0x29, 0x88, 0x95, 0x5b, 0xa8, 0xba, 0x97, 0xed, 0xac, 0xe6, 0xdd, 0x03,
  0x63, 0xf0, 0x12, 0x44, 0x67, 0x29, 0x5e, 0x23, 0xda, 0x67, 0x22, 0xf3,
  0x88, 0xdb, 0x9f, 0xd5, 0x66, 0xae, 0x2f, 0x9d, 0xfd, 0xc0, 0xe2, 0x1b,
  0x3b, 0x05, 0x27, 0x60, 0x2a, 0x68, 0x8c, 0x3d, 0xf3, 0xc7, 0x31, 0x4e,
  0x44, 0x5c, 0x29, 0xf1, 0x17, 0x52, 0x56, 0x81, 0x8e, 0xd4, 0xc6, 0x2f,
  0xee, 0xf2, 0x97, 0x45, 0x86, 0x32, 0x01, 0x44, 0xe5, 0xad, 0xb2, 0xdd,
  0x0b, 0xd0, 0x94, 0x47, 0x1a, 0x3b, 0x2e, 0x25, 0x40, 0xd6, 0xd3, 0xf2,
  0x52, 0x8b, 0x8d, 0xc7, 0xa7, 0xe4, 0x40, 0xd2, 0x22, 0x50, 0xa2, 0xe0,
  0x66, 0x4d, 0x27, 0xe5, 0x1c, 0xec, 0x30, 0x9d, 0x67, 0xdd, 0xbf, 0x2d,
  0x2f, 0xb9, 0xe8, 0x5c, 0x63, 0x19, 0x67, 0x0b, 0x25, 0xe7, 0x14, 0xcd,
  0x13, 0x15, 0x14, 0xd6, 0x90, 0x42, 0x53, 0x36, 0x0a, 0x3f, 0x5b, 0xbe,
  0xce, 0xdb, 0xda, 0xb6, 0x01, 0x02, 0x61, 0xe2, 0x77, 0x64, 0xbf, 0x48,
  0x5b, 0x4b, 0x57, 0x8c, 0xe2, 0xc9, 0xb3, 0x9e, 0x29, 0xf7, 0x5b, 0x21,
  0xe4, 0xd8, 0xb2, 0xcd, 0x0c, 0x86, 0x5d, 0xf8, 0xe6, 0xf3, 0xeb, 0xad,
  0x96, 0xea, 0x13, 0xc1, 0x94, 0x04, 0x9a, 0x5a, 0xc4, 0xcd, 0x2c, 0x9b,
  0xd5, 0x28, 0x8e, 0x93, 0x56, 0x5d, 0x01, 0xda, 0x16, 0xca, 0x37, 0x47,
  0x1b, 0x38, 0xbc, 0xcc, 0xbd, 0xfa, 0x1d, 0x39, 0x04, 0x65, 0xdb, 0x3e,
  0x16, 0x87, 0x5c, 0xc6, 0x11, 0xd2, 0xef, 0x53, 0xf0, 0x5c, 0xa5, 0xa5,
  0xf8, 0x5a, 0x90, 0x17, 0xcc, 0x18, 0x10, 0xf2, 0x13, 0x51, 0xff, 0xd1,
  0xff, 0xd3, 0x8c, 0x5f, 0xaa, 0x2c, 0xdc, 0x96, 0xf8, 0xfb, 0xd7, 0x9c,
  0x39, 0x15, 0xf5, 0xc8, 0x88, 0x11, 0x2a, 0x6b, 0x2d, 0xb9, 0xbc, 0xc6,
  0xd0, 0xab, 0x1a, 0xa4, 0x95, 0x68, 0xd8, 0xf7, 0x4c, 0x01, 0xef, 0x8a,
  0x2b, 0x6b, 0xa0, 0x5f, 0xa3, 0xf0, 0x08, 0x13, 0x11, 0x12, 0x30, 0xbb,
  0x8f, 0x50, 0x0f, 0x86, 0x18, 0x54, 0x39, 0x67, 0x67, 0x2d, 0xb0, 0xe0,
  0x57, 0x21, 0xf4, 0xff, 0x17, 0x5d, 0xc8, 0xcb, 0xb6, 0xfe, 0x3d, 0x1e,
  0x99, 0xbc, 0x03, 0xe7, 0x07, 0x53, 0xc2, 0xaa, 0xd3, 0x90, 0x1c, 0x4d,
  0x96, 0xf5, 0x99, 0xc9, 0x33, 0xa0, 0x02, 0xff, 0x4d, 0x8e, 0x63, 0x88,
  0xe4, 0x1c, 0x00, 0xde, 0x51, 0x58, 0xa5, 0x33, 0x3c, 0xef, 0xd7, 0x2e,
  0x48, 0xcb, 0x6f, 0x3a, 0x8c, 0xe3, 0x0f, 0x5e, 0x9c, 0x15, 0x16, 0x5c,
  0x74, 0xe9, 0x1b, 0x97, 0x4d, 0x47, 0x2c, 0xfa, 0x6a, 0xb1, 0x2a, 0x6c,
  0x72, 0xe3, 0x6b, 0x97, 0xa3, 0xee, 0x47, 0xf3, 0x5f, 0x35, 0xba, 0xfc,
  0x39, 0xf3, 0xff, 0x07, 0x4e, 0x4b, 0xdb, 0x2d, 0x63, 0x9a, 0xfb, 0xb5,
  0x43, 0xbb, 0xdd, 0x67, 0xac, 0x8b, 0x41, 0xb4, 0x21, 0xa2, 0xcc, 0xe6,
  0x3a, 0x1a, 0x42, 0xb8, 0x0a, 0xbb, 0xe2, 0x09, 0xc1, 0x1e, 0x87, 0x11,
  0xf6, 0x5f, 0x22, 0x09, 0xff, 0x84, 0x6d, 0x17, 0x29, 0x03, 0x8f, 0x90,
  0xc9, 0x64, 0xfe, 0xb4, 0xb6, 0xbb, 0x0d, 0x08, 0x33, 0x89, 0x02, 0xf2,
  0x2d, 0x3d, 0xcd, 0x8f, 0x5b, 0xa5, 0xcf, 0xa6, 0x96, 0x88, 0x6a, 0x16,
  0x73, 0xdf, 0xd3, 0xb0, 0xca, 0x27, 0xa0, 0x60, 0xc8, 0xdb, 0x9d, 0x52,
  0x74, 0x0b, 0x07, 0x56, 0xc1, 0x98, 0xca, 0xca, 0x2b, 0xb1, 0x58, 0x33,
  0xd3, 0xdd, 0x08, 0xdd, 0x90, 0x3a, 0x67, 0x54, 0x48, 0xb6, 0xfb, 0xd4,
  0x15, 0xf5, 0x9f, 0xa5, 0x0c, 0x1b, 0x0b, 0xdc, 0x2b, 0xd9, 0x20, 0xfe,
  0x72, 0x57, 0xda, 0x09, 0x2e, 0x4c, 0xc4, 0x67, 0x55, 0x26, 0x2a, 0xe5,
  0x57, 0x5b, 0x1f, 0x4e, 0x6d, 0x0b, 0x44, 0xab, 0xc8, 0x03, 0xba, 0xab,
  0xe5, 0x96, 0x1f, 0x46, 0x69, 0x26, 0x2e, 0x3f, 0xec, 0x9b, 0xd8, 0x43,
  0x29, 0x98, 0xa1, 0x2b, 0x10, 0x8a, 0x23, 0x00, 0x95, 0xfb, 0xe9, 0xee,
  0xbc, 0xb8, 0x29, 0x16, 0xd0, 0xff, 0x94, 0xc0, 0x4b, 0x03, 0xee, 0x4a,
  0x05, 0xa9, 0x2c, 0x0a, 0x4b, 0xab, 0x99, 0x58, 0xe4, 0x28, 0xed, 0x2c,
  0x5e, 0x58, 0x59, 0x69, 0x86, 0x87, 0xf8, 0x9c, 0xae, 0x43, 0xd2, 0x67,
  0x42, 0x39, 0xf5, 0x65, 0xdc, 0xfc, 0x4b, 0x2f, 0x08, 0xd7, 0x43, 0xa8,
  0xee, 0x13, 0xdd, 0x19, 0x9a, 0x44, 0x43, 0x24, 0x8a, 0x41, 0x0d, 0x1b,
  0x1c, 0xc6, 0x91, 0xa3, 0x1a, 0xf2, 0xab, 0x9f, 0x15, 0xd1, 0xf3, 0xff,
  0x4a, 0x33, 0x4e, 0x30, 0xb0, 0x6c, 0x0b, 0x57, 0x0a, 0xaa, 0xb8, 0x02,
  0x2a, 0x20, 0x5d, 0x5b, 0x41, 0xfd, 0x39, 0xad, 0x30, 0x1d, 0xd1, 0x06,
  0xc4, 0x69, 0x98, 0xb1, 0x29, 0x72, 0xb7, 0x22, 0x85, 0x14, 0xd0, 0xfe,
  0xd3, 0xa5, 0x00, 0xdb, 0xfe, 0x8c, 0x4c, 0xeb, 0xdf, 0x4e, 0x25, 0x0a,
  0x96, 0x54, 0xb3, 0x69, 0x2e, 0xa8, 0x92, 0x68, 0x9d, 0x4d, 0xa4, 0xf3,
  0x08, 0x0b, 0x36, 0x21, 0x4a, 0x2d, 0x75, 0x4a, 0xe8, 0xae, 0x8b, 0xd2,
  0xb4, 0xd8, 0xb7, 0x53, 0x23, 0x21, 0xfd, 0xac, 0xf1, 0x30, 0x84, 0x9a,
  0x2a, 0xf3, 0x45, 0x08, 0xba, 0xdc, 0x17, 0xf8, 0x90, 0xda, 0x58, 0x36,
  0xd5, 0x2f, 0xae, 0x7d, 0xa0, 0xbb, 0xea, 0x47, 0x77, 0xe6, 0xa2, 0xfb,
  0xeb, 0x5d, 0x35, 0xa8, 0xf0, 0x0d, 0x36, 0xff, 0x97, 0x28, 0xa9, 0x10,
  0x51, 0x35, 0x55, 0xca, 0xae, 0xb5, 0x14, 0x92, 0xdc, 0x5b, 0xfd, 0xb7,
  0xcf, 0xa5, 0xa6, 0x54, 0xb6, 0xc3, 0x1a, 0x13, 0x27, 0x14, 0x61, 0xb9,
  0xf2, 0x38, 0xd9, 0xab, 0x17, 0x13, 0xb5, 0x9f, 0x5f, 0xac, 0xca, 0xea,
  0xcb, 0xe8, 0x50, 0xa5, 0xec, 0x85, 0xbf, 0xd0, 0xa3, 0xb3, 0x2b, 0x00,
  0x17, 0x42, 0x52, 0x50, 0xc0, 0x17, 0x60, 0x2a, 0xe3, 0xee, 0x16, 0x19,
  0x98, 0xa2, 0x86, 0xd2, 0x77, 0x62, 0x65, 0xa3, 0x26, 0x11, 0xd9, 0x7a,
  0x90, 0x77, 0x38, 0xd0, 0x6b, 0x2f, 0x2d, 0x5a, 0xac, 0x57, 0x5b, 0x36,
  0xe2, 0x67, 0xb1, 0xed, 0xbc, 0xca, 0xf2, 0x8f, 0x18, 0xe1, 0x72, 0x46,
  0xa8, 0xb8, 0x15, 0x93, 0x91, 0x56, 0x56, 0x69, 0xd6, 0xd5, 0x63, 0xc9,
  0xf8, 0x04, 0x10, 0xc5, 0x4e, 0xc7, 0x81, 0xe7, 0x5e, 0x7d, 0xc5, 0x1c,
  0x69, 0x5f, 0x94, 0xf2, 0x0f, 0x57, 0x16, 0xf0, 0x1f, 0xba, 0xa4, 0xb6,
  0xaf, 0x63, 0xc2, 0x5c, 0xf1, 0xf4, 0x84, 0xfd, 0x8e, 0xf6, 0xb2, 0x3d,
  0xb9, 0xde, 0x6f, 0x36, 0xb1, 0x45, 0x01, 0xd8, 0x34, 0x82, 0xae, 0xfa,
  0xb9, 0xef, 0xf5, 0xb1, 0xf4, 0x97, 0x07, 0xb7, 0xae, 0x35, 0x9f, 0xe1,
  0x34, 0x8e, 0x58, 0x72, 0xbc, 0xb4, 0x2d, 0x7d, 0x24, 0x55, 0x15, 0xdd,
  0x25, 0x85, 0xac, 0x21, 0x9f, 0xac, 0x6a, 0x35, 0xa7, 0x9d, 0xba, 0xda,
  0x49, 0x5f, 0xfc, 0x58, 0x19, 0x53, 0x8c, 0x9b, 0xe2, 0xdd, 0x28, 0x06,
  0xed, 0xf0, 0xa9, 0x6c, 0xc3, 0x92, 0x37, 0x09, 0x1c, 0xcc, 0xf6, 0xfb,
  0x87, 0x55, 0x82, 0xcd, 0x27, 0xae, 0x7d, 0xa9, 0x9c, 0xe6, 0x29, 0x6a,
  0x84, 0x9f, 0xd9, 0x23, 0x38, 0xe1, 0xd0, 0x38, 0xcf, 0xf3, 0xfe, 0x35,
  0x12, 0x1b, 0x43, 0xc4, 0xb3, 0x11, 0xd2, 0xe4, 0x8d, 0xd7, 0xd5, 0xbf,
  0xc1, 0x4e, 0x6c, 0x44, 0x1b, 0x12, 0x12, 0xdf, 0xc3, 0xcb, 0xee, 0xe2,
  0xab, 0x34, 0xb1, 0xa8, 0xce, 0xbf, 0x8f, 0xce, 0x4c, 0x4c, 0x92, 0x04,
  0x5b, 0x41, 0x0f, 0x02, 0xa5, 0xc5, 0x51, 0x6a, 0x1c, 0x58, 0x32, 0x76,
  0x5a, 0xaf, 0xeb, 0x04, 0x71, 0x54, 0xb0, 0x84, 0xce, 0xfd, 0xef, 0x1c,
  0x2e, 0x2e, 0x53, 0xe8, 0xdc, 0xca, 0x45, 0xef, 0x93, 0x9a, 0x98, 0xc7,
  0xa0, 0x4d, 0x4e, 0x6f, 0xfd, 0x53, 0x1f, 0xe0, 0x9b, 0xc2, 0x0e, 0x15,
  0xd3, 0xdd, 0x1c, 0x64, 0xc4, 0x8c, 0x76, 0x5c, 0x48, 0xfc, 0x73, 0x24,
  0x6f, 0xf4, 0x2c, 0xae, 0x26, 0x7c, 0x4f, 0x0e, 0x1f, 0x9f, 0x7c, 0x77,
  0x75, 0x91, 0x5d, 0x03, 0x14, 0x13, 0x1e, 0xa0, 0x11, 0xd8, 0xaa, 0x85,
  0x10, 0x75, 0x2b, 0xe8, 0x84, 0xc2, 0xcf, 0xe8, 0x50, 0x3b, 0x08, 0x46,
  0x56, 0x7c, 0xd8, 0x8b, 0xdc, 0x9b, 0x7c, 0xbb, 0xfd, 0x74, 0xb5, 0x96,
  0xd1, 0xe6, 0x13, 0xca, 0x76, 0x9d, 0x29, 0x5a, 0x41, 0xec, 0xc2, 0x78,
  0x76, 0xe1, 0x44, 0x47, 0x72, 0xaf, 0x07, 0x0a, 0xd3, 0x48, 0xf2, 0xac,
  0x3b, 0x6b, 0x82, 0x61, 0x19, 0xdd, 0x0e, 0x3d, 0x6c, 0xce, 0x8f, 0x2d,
  0x85, 0xaa, 0xf6, 0x58, 0x40, 0x0b, 0x65, 0x9f, 0x08, 0xad, 0x15, 0x0a,
  0x34, 0xee, 0xf0, 0xbf, 0xf7, 0x54, 0x51, 0xf9, 0xf5, 0xf4, 0x23, 0x2c,
  0x53, 0xbb, 0x1c, 0x69, 0xae, 0xac, 0xbd, 0xb8, 0xf4, 0x13, 0xdf, 0xb0,
  0x7d, 0x1b, 0xce, 0xda, 0xac, 0xe3, 0x43, 0x07, 0x17, 0xad, 0xb3, 0x90,
  0x8d, 0xcd, 0x54, 0x35, 0x14, 0x2e, 0x28, 0x7b, 0xcb, 0x7d, 0xba, 0xfa,
  0x6b, 0xc1, 0x0e, 0xbd, 0x7d, 0x3e, 0x08, 0xc6, 0xcb, 0xae, 0x45, 0x3c,
  0x5c, 0xd2, 0xbb, 0xc0, 0x76, 0xd5, 0x39, 0x02, 0x2f, 0xa9, 0x5e, 0xac,
  0x52, 0x6f, 0x13, 0x54, 0x11, 0xa0, 0xf2, 0x27, 0xdf, 0x53, 0xd5, 0x8a,
  0x32, 0xd5, 0x3b, 0x6a, 0x49, 0xe0, 0x98, 0xff, 0xe2, 0x3b, 0x71, 0xd3,
  0x1a, 0x00, 0x17, 0x43, 0x00, 0x92, 0xd2, 0x54, 0xc9, 0xc4, 0x50, 0x18,
  0x40, 0xf9, 0x48, 0x18, 0x07, 0x78, 0x28, 0xd7, 0x2d, 0x76, 0x7e, 0x4b,
  0x52, 0x87, 0x94, 0x0a, 0xbb, 0x0d, 0x81, 0x91, 0x13, 0x4d, 0x58, 0xfd,
  0x9c, 0x5b, 0xf8, 0x9e, 0x3a, 0x1c, 0xe9, 0x96, 0xc2, 0x85, 0x63, 0x38,
  0x09, 0xdb, 0xcc, 0xb8, 0x7e, 0x8d, 0x43, 0x76, 0x40, 0xfa, 0xfe, 0x7b,
  0x7d, 0xef, 0x26, 0xdd, 0xf0, 0x5f, 0x26, 0xa9, 0x5f, 0x50, 0xf3, 0xf6,
  0x3d, 0xfa, 0x7e, 0x35, 0x92, 0xb6, 0x63, 0x30, 0x3b, 0xbe, 0x5f, 0x15,
  0xa3, 0xa4, 0x2a, 0xff, 0xa1, 0x92, 0xc1, 0xa1, 0x92, 0xfb, 0xe5, 0x58,
  0x00, 0x8f, 0xea, 0xca, 0x6a, 0x3f, 0xa4, 0x77, 0xa1, 0xdc, 0xad, 0xbb,
  0xcb, 0xb2, 0xac, 0xde, 0x54, 0x94, 0x58, 0xf9, 0xa3, 0xde, 0xc5, 0xd6,
  0xdc, 0x95, 0x41, 0xd1, 0xe0, 0xa7, 0x42, 0x06, 0xff, 0x7f, 0x37, 0xb1,
  0xb0, 0x2a, 0xbd, 0xb2, 0x15, 0xd1, 0xdb, 0xb4, 0x15, 0x0e, 0xa0, 0x3f,
  0x25, 0x4b, 0x9e, 0x5f, 0xb2, 0x07, 0x15, 0xf6, 0xd9, 0x43, 0xf2, 0x75,
  0x1d, 0xaa, 0xe9, 0xd5, 0xcc, 0xd0, 0xd2, 0xd8, 0xbb, 0xaf, 0xde, 0xee,
  0x81, 0xa4, 0xaf, 0xab, 0x62, 0xc3, 0x99, 0x25, 0x61, 0x61, 0x39, 0x02,
  0xb2, 0x01, 0x30, 0xa9, 0xd8, 0x41, 0xc1, 0x4b, 0x6d, 0xd3, 0xdd, 0x9d,
  0x92, 0xe3, 0xc4, 0xc5, 0x83, 0xa3, 0x18, 0xcd, 0x58, 0x4f, 0xa7, 0x8e,
  0x98, 0x58, 0x6a, 0x83, 0x52, 0x71, 0xd6, 0xa0, 0xd2, 0x94, 0x3a, 0x3b,
  0xfc, 0xc1, 0x5c, 0xab, 0xd7, 0x27, 0x00, 0x15, 0x02, 0xf1, 0xed, 0x38,
  0x77, 0xa4, 0x2a, 0x55, 0x96, 0x19, 0xb0, 0xa4, 0x01, 0xa9, 0x2d, 0x3b,
  0x2f, 0x84, 0xe7, 0xa7, 0x5d, 0xb5, 0x2d, 0x65, 0x34, 0xa2, 0xcf, 0xda,
  0xb1, 0x1b, 0x8e, 0xeb, 0xc2, 0xdc, 0x3b, 0xb2, 0x10, 0x32, 0x78, 0x88,
  0xdc, 0xe4, 0x88, 0xbe, 0xa9, 0xa2, 0x14, 0x77, 0x90, 0x0e, 0x67, 0xe1,
  0xe6, 0x2b, 0xd8, 0xf4, 0x10, 0x29, 0x30, 0xfd, 0xb2, 0x01, 0xe0, 0xbd,
  0x28, 0xc7, 0x51, 0x0d, 0x7a, 0x8a, 0x8f, 0x47, 0x4e, 0x84, 0x7d, 0xee,
  0x4e, 0xd5, 0x29, 0xf0, 0xcb, 0x07, 0x5c, 0xb8, 0xdf, 0x1f, 0x90, 0x17,
  0xab, 0x68, 0xbd, 0x9f, 0x12, 0x52, 0x96, 0x7b, 0x0d, 0x01, 0x03, 0xff,
  0x91, 0x63, 0xd9, 0x2c, 0x88, 0x61, 0xbf, 0x29, 0x66, 0x94, 0xed, 0x0c,
  0x08, 0x13, 0x9c, 0x71, 0xc9, 0xfd, 0xca, 0x2e, 0xde, 0x21, 0xc6, 0x67,
  0x4f, 0xa5, 0xeb, 0xf9, 0x07, 0xfc, 0x11, 0xe1, 0x34, 0x4e, 0xd2, 0xe6,
  0xdf, 0x99, 0xde, 0xe4, 0x6f, 0x47, 0xec, 0xb7, 0x19, 0x07, 0xc8, 0x61,
  0x74, 0x5f, 0x53, 0x18, 0x0a, 0xda, 0xf3, 0xc0, 0x86, 0x32, 0x7d, 0x62,
  0xe4, 0x6e, 0x9e, 0xd0, 0xd4, 0xf1, 0x38, 0xba, 0xca, 0x22, 0x0f, 0xb1,
  0x45, 0x0e, 0xe3, 0xb2, 0xb5, 0x1e, 0x9e, 0x0f, 0x22, 0x4a, 0xc6, 0x49,
  0xe7, 0xf6, 0x8e, 0xde, 0x66, 0x41, 0x8c, 0x6b, 0xa7, 0x2b, 0xfe, 0x7d,
  0xeb, 0x9c, 0x02, 0x25, 0xcc, 0x6d, 0x71, 0x04, 0x16, 0x93, 0x48, 0x4c,
  0xe7, 0xce, 0x5c, 0xa4, 0x1c, 0xb2, 0x8d, 0xb1, 0x85, 0xce, 0xf8, 0x11,
  0x0f, 0xbd, 0xc2, 0xc0, 0x22, 0x17, 0xe4, 0x2d, 0xba, 0x79, 0xb7, 0xab,
  0x66, 0xcd, 0x9d, 0x9e, 0x67, 0x92, 0xec, 0x00, 0x0f, 0x1b, 0xbe, 0x0a,
  0x1f, 0x89, 0x6d, 0x46, 0x08, 0xc6, 0x53, 0x5a, 0xe9, 0x1e, 0xaa, 0xcf,
  0x94, 0x0c, 0x89, 0x39, 0x3c, 0x7d, 0x51, 0x5f, 0x9e, 0x2f, 0xe7, 0x90,
  0xfd, 0xe5, 0xce, 0x99, 0x34, 0xa8, 0x66, 0xf7, 0x16, 0x30, 0xae, 0x29,
  0xb8, 0xb5, 0x18, 0xed, 0xb2, 0x5b, 0x05, 0x52, 0x3b, 0x1d, 0x33, 0x11,
  0x46, 0xaa, 0x4d, 0xa9, 0x8e, 0x7a, 0xf4, 0x54, 0x39, 0x74, 0x41, 0xbe,
  0xb2, 0x8c, 0xb7, 0xc9, 0x85, 0x30, 0xa3, 0x32, 0x82, 0x9b, 0x4f, 0x4d,
  0x2a, 0x5d, 0x4e, 0xaf, 0x8f, 0x40, 0xd9, 0xde, 0x46, 0x1c, 0x75, 0x0c,
  0x8b, 0xcc, 0x8f, 0xf8, 0xca, 0x66, 0xba, 0x8c, 0x2a, 0x71, 0x73, 0x66,
  0x00, 0x9a, 0x2c, 0x76, 0x64, 0x85, 0xee, 0xa0, 0x66, 0xd9, 0xfc, 0x22,
  0x8f, 0xfe, 0xa9, 0x23, 0x3b, 0xf5, 0x8b, 0x60, 0xea, 0x88, 0x21, 0xe0,
  0x6f, 0x8b, 0xf1, 0x40, 0x52, 0xed, 0xe5, 0x2e, 0x62, 0x89, 0x7a, 0x25,
  0x64, 0xc7, 0x71, 0x42, 0x6f, 0x83, 0xd4, 0x38, 0x01, 0x34, 0x26, 0xac,
  0x17, 0x34, 0x30, 0x24, 0x0f, 0x16, 0xad, 0x50, 0xb1, 0x1e, 0x3f, 0xb7,
  0x74, 0xc0, 0xf0, 0x7b, 0xb6, 0xd3, 0xdb, 0x71, 0x4e, 0xbb, 0xf6, 0xc6,
  0x45, 0xdd, 0xaa, 0xfa, 0xa3, 0x41, 0xed, 0x18, 0x96, 0x16, 0x66, 0xc7,
  0x19, 0x2c, 0x07, 0xe7, 0x60, 0x57, 0xe0, 0x3e, 0xf2, 0x31, 0x01, 0xec,
  0xc3, 0x6d, 0x04, 0x94, 0xc3, 0x6b, 0x43, 0xfb, 0x56, 0x1e, 0x91, 0xa3,
  0x21, 0xda, 0x66, 0xb0, 0xad, 0x58, 0xf2, 0xb9, 0x37, 0xf5, 0xf1, 0x32,
  0x7a, 0xc1, 0x2a, 0xad, 0x9d, 0x4d, 0x7e, 0x34, 0x9f, 0xf7, 0xd8, 0x4d,
  0x28, 0xb2, 0x1b, 0x89, 0x37, 0x92, 0x46, 0x30, 0xfb, 0xc9, 0x91, 0x21,
  0xbb, 0xd8, 0x93, 0x6a, 0x84, 0x3c, 0xa4, 0x11, 0x31, 0x61, 0x5b, 0x1d,
  0x94, 0x3d, 0xa7, 0x04, 0x51, 0x28, 0x41, 0x8b, 0x96, 0x00, 0x4b, 0xef,
  0x9e, 0x9f, 0xb3, 0x93, 0x9b, 0x4c, 0x49, 0x1b, 0x0c, 0x5d, 0x30, 0x8e,
  0x54, 0xcc, 0xe3, 0x23, 0xd0, 0x63, 0x17, 0x32, 0xda, 0x0a, 0x56, 0x13,
  0x3d, 0x9e, 0xdc, 0xeb, 0x22, 0xf2, 0x43, 0x51, 0x47, 0x24, 0xf4, 0x42,
  0x3b, 0x65, 0x3b, 0x37, 0x32, 0x98, 0x55, 0x03, 0xc2, 0xf2, 0xff, 0x19,
  0x96, 0xfd, 0xb8, 0x5a, 0x4c, 0x17, 0x81, 0xce, 0x2f, 0xc7, 0xaf, 0x50,
  0x2b, 0x0c, 0x79, 0x07, 0xc5, 0x22, 0x88, 0x59, 0xaa, 0x1d, 0x4e, 0xf7,
  0xc4, 0x1a, 0xd2, 0x72, 0x7b, 0x6c, 0xa4, 0x0f, 0x8f, 0x5d, 0x9a, 0xea,
  0xea, 0xcd, 0xc1, 0x56, 0x55, 0xe6, 0xde, 0xa7, 0xa9, 0x38, 0xda, 0x8f,
  0xb2, 0x18, 0xd7, 0x9e, 0xd9, 0xe9, 0x31, 0x14, 0xcb, 0x83, 0x85, 0xf7,
  0x3d, 0x4b, 0xc5, 0x45, 0x1e, 0x1b, 0xb2, 0x98, 0x64, 0x2e, 0xd0, 0x2d,
  0x5d, 0xb5, 0x58, 0xde, 0x48, 0x2e, 0x9a, 0x3d, 0x30, 0x21, 0x31, 0xd8,
  0x8a, 0x17, 0xc4, 0xc4, 0x98, 0x5d, 0x31, 0xa2, 0xaa, 0x0a, 0xee, 0x03,
  0x9a, 0xdd, 0xfa, 0x1e, 0x0f, 0x20, 0xa9, 0x2e, 0x58, 0xd7, 0x37, 0xde,
  0x9c, 0xc2, 0xea, 0xf2, 0x3e, 0xdf, 0x8c, 0x17, 0xa1, 0x60, 0x24, 0x4c,
  0xc6, 0x8d, 0x09, 0x2f, 0x52, 0x4a, 0x41, 0x44, 0xcd, 0x29, 0xf4, 0x3c,
  0x31, 0x06, 0x4b, 0xe5, 0xd5, 0xdc, 0xf5, 0x5a, 0x59, 0x42, 0xad, 0x65,
  0x49, 0xf6, 0xcd, 0x8c, 0xa2, 0x63, 0xb7, 0xb5, 0x99, 0x36, 0x13, 0x59,
  0x41, 0x42, 0xd9, 0x1f, 0x51, 0xb7, 0xc8, 0x4b, 0x55, 0xf5, 0x20, 0x4d,
  0xbc, 0x5e, 0x0c, 0xce, 0xaf, 0x20, 0x11, 0x3a, 0xc0, 0xb2, 0x84, 0xa7,
  0xcf, 0x9c, 0x43, 0xf4, 0x8c, 0x3d, 0xbe, 0x4a, 0x51, 0x1d, 0x64, 0xa2,
  0x50, 0x51, 0xf3, 0xdb, 0xe5, 0x3b, 0xb2, 0xc1, 0x5e, 0x21, 0xa8, 0xb1,
  0x15, 0xf2, 0xd3, 0xdf, 0x4a, 0xa7, 0x94, 0xa6, 0x38, 0xd9, 0x16, 0x88,
  0xae, 0xd1, 0xb2, 0x44, 0x5b, 0xd7, 0xe2, 0xa1, 0x13, 0x25, 0xb0, 0x94,
  0x6c, 0x46, 0xbe, 0x11, 0x43, 0x43, 0xe4, 0x24, 0xc7, 0x16, 0xb7, 0x8b,
  0x44, 0xb3, 0xb8, 0x60, 0x62, 0x0e, 0xde, 0x5e, 0xc2, 0xb7, 0xf1, 0xde,
  0xef, 0x47, 0xf9, 0xe6, 0x85, 0x28, 0x06, 0x8f, 0x99, 0xd0, 0x65, 0x26,
  0x06, 0xf6, 0xc4, 0x15, 0x24, 0x95, 0xb5, 0x26, 0x9f, 0x44, 0xc9, 0x3f,
  0xba, 0xe0, 0x55, 0x17, 0x5c, 0xdb, 0x95, 0x4a, 0xcb, 0xf2, 0x28, 0x86,
  0x62, 0xf4, 0x57, 0x3e, 0x94, 0x58, 0x0c, 0x81, 0x48, 0xd2, 0xb7, 0x57,
  0xb9, 0xdd, 0x10, 0xf4, 0x87, 0xed, 0xe3, 0x3e, 0xb4, 0xdc, 0xd8, 0x57,
  0x1b, 0x5f, 0xc8, 0xd2, 0x1f, 0x9a, 0x33, 0x09, 0x2e, 0xee, 0xce, 0x28,
  0x6f, 0x61, 0x14, 0x97, 0xb8, 0x01, 0x71, 0x5d, 0x45, 0x29, 0x08, 0xd6,
  0x2c, 0x38, 0xaa, 0x2a, 0xcb, 0xc3, 0x1b, 0xe5, 0x4d, 0x39, 0x1d, 0x49,
  0xc2, 0x12, 0xb5, 0x51, 0x27, 0xfe, 0xc3, 0x42, 0x1c, 0x24, 0xd2, 0xd9,
  0xcc, 0xc7, 0x18, 0xbd, 0x37, 0x8d, 0xcf, 0x25, 0x41, 0xb7, 0xc4, 0xaa,
  0x8a, 0x4d, 0xc0, 0xdc, 0xca, 0xdd, 0xbb, 0xb7, 0x44, 0xdd, 0x0e, 0x4f,
  0x26, 0xbd, 0x2d, 0x0e, 0xb3, 0xac, 0x02, 0xd0, 0x96, 0x1f, 0x0e, 0x5b,
  0xe2, 0x0a, 0xdd, 0x4f, 0x33, 0x50, 0x44, 0xad, 0xd5, 0xcb, 0x08, 0x9b,
  0xb8, 0xd2, 0x5a, 0x95, 0xbe, 0xbd, 0x31, 0xa1, 0xb2, 0xb2, 0xac, 0xa0,
  0xc0, 0x3a, 0x51, 0xb8, 0x35, 0xb1, 0x30, 0xd7, 0x47, 0xd3, 0xe9, 0x00,
  0x2c, 0xba, 0xff, 0x98, 0xf8, 0x43, 0xe2, 0x1f, 0xe5, 0x5d, 0xf2, 0xe5,
  0x6b, 0x5f, 0x52, 0xcf, 0x13, 0x4c, 0x17, 0xf1, 0x00, 0x2e, 0x94, 0x85,
  0x14, 0xee, 0x67, 0x8f, 0x1d, 0xc0, 0x22, 0xd1, 0xc1, 0x5a, 0x63, 0xcd,
  0x54, 0x26, 0x46, 0xc4, 0x9f, 0x3e, 0x55, 0xfb, 0x9a, 0xbd, 0x0d, 0xad,
  0x70, 0x04, 0x1b, 0xbe, 0xd9, 0x18, 0xd6, 0xca, 0x8d, 0x47, 0xc7, 0x27,
  0x27, 0xb5, 0x3e, 0x0c, 0x3f, 0x04, 0x4e, 0xf7, 0x41, 0xf6, 0x44, 0xaf,
  0xd8, 0xfe, 0xb6, 0xa5, 0x58, 0xde, 0x93, 0x9a, 0x9e, 0x4d, 0x84, 0x17,
  0x41, 0x3a, 0x9a, 0x2b, 0xfc, 0xff, 0x1c, 0x29, 0x62, 0xfd, 0x22, 0x3a,
  0x30, 0xf2, 0x34, 0xa3, 0x98, 0xab, 0x63, 0x47, 0x2f, 0xde, 0xa1, 0x51,
  0x3d, 0x0a, 0x00, 0x24, 0x29, 0x26, 0x28, 0xf5, 0x33, 0x13, 0xc2, 0xd8,
  0xb3, 0x19, 0xcb, 0x91, 0xcc, 0x17, 0xff, 0x81, 0xc0, 0xdf, 0x55, 0xd3,
  0xa4, 0x66, 0x94, 0x46, 0x61, 0xb6, 0xb9, 0xcd, 0x4a, 0x25, 0x89, 0x2d,
  0xc2, 0x9b, 0xd1, 0x5a, 0xff, 0x4d, 0xae, 0x10, 0x40, 0xd6, 0x45, 0xae,
  0x2f, 0xb0, 0xf3, 0xd9, 0x3d, 0x60, 0x5a, 0x26, 0x8d, 0xa1, 0x31, 0x9e,
  0xa8, 0x1e, 0x28, 0x1b, 0x9f, 0x8b, 0xca, 0xbb, 0x2c, 0x54, 0xc0, 0x62,
  0xa1, 0x59, 0xda, 0x95, 0xed, 0xfc, 0xd6, 0xaa, 0x3f, 0x21, 0xf9, 0xe1,
  0x9d, 0x3f, 0x3c, 0x19, 0x5b, 0x3d, 0xaa, 0x3c, 0xa1, 0xea, 0x5a, 0x3d,
  0x40, 0x2b, 0x33, 0xb3, 0xa6, 0xa8, 0x41, 0xaf, 0x3b, 0xd1, 0xcb, 0x1b,
  0x6d, 0xfe, 0x39, 0xe9, 0x14, 0xe2, 0x1a, 0xa1, 0xb6, 0x53, 0xa9, 0x9e,
  0xd7, 0x9d, 0x2c, 0x59, 0xc4, 0x16, 0x35, 0x18, 0x8d, 0xdd, 0x57, 0x02,
  0x0a, 0x59, 0x33, 0xbe, 0xcd, 0x02, 0xdd, 0xc6, 0x4a, 0x59, 0xad, 0x3d,
  0x0f, 0xb7, 0xfc, 0x5c, 0xed, 0x0e, 0x91, 0x83, 0x0b, 0xeb, 0xd0, 0xce,
  0xcd, 0xc5, 0x65, 0x4f, 0xeb, 0xca, 0xb0, 0xc5, 0xfd, 0x31, 0x29, 0x84,
  0x95, 0xef, 0x15, 0xd3, 0x60, 0xe6, 0x6a, 0x18, 0xeb, 0xc9, 0xe9, 0xcb,
  0xa9, 0xea, 0xd5, 0x10, 0x61, 0xc9, 0x0d, 0xdd, 0x00, 0x27, 0x92, 0xef,
  0x1c, 0x16, 0x5c, 0x45, 0xdb, 0xdf, 0x3e, 0x0e, 0x1f, 0xfe, 0xc0, 0x2e,
  0xf8, 0x39, 0xc7, 0xc3, 0x09, 0x8b, 0xd7, 0xcb, 0x99, 0xbe, 0x45, 0x4c,
  0x0b, 0x16, 0x41, 0x63, 0xb4, 0xfb, 0x39, 0x88, 0xd4, 0x07, 0x0a, 0xcc,
  0xd4, 0x32, 0xf1, 0x61, 0xe7, 0x52, 0xfa, 0xa3, 0x42, 0xbb, 0x14, 0x9d,
  0x48, 0x93, 0xb1, 0x9e, 0xa1, 0xbf, 0xd2, 0x95, 0xd7, 0x24, 0x4e, 0xf8,
  0x4a, 0x07, 0x3f, 0x3f, 0xd7, 0x95, 0xfd, 0xdb, 0xef, 0xc7, 0x10, 0x4c,
  0xd0, 0x42, 0x49, 0x2e, 0x9b, 0xba, 0x30, 0x1f, 0xe7, 0x66, 0x65, 0xde,
  0x39, 0x9f, 0xde, 0xbb, 0xd5, 0x6f, 0x58, 0xcd, 0xec, 0xb7, 0x26, 0xf9,
  0x0d, 0xfe, 0xcc, 0xe6, 0xcf, 0xc9, 0x62, 0xa7, 0x41, 0x31, 0x6e, 0x6e,
  0xc2, 0x45, 0x3a, 0xb9, 0x2e, 0xee, 0xf9, 0x39, 0x57, 0xa2, 0x02, 0x3f,
  0xe6, 0xfd, 0x2f, 0xdd, 0xa7, 0x96, 0x60, 0x40, 0x00, 0x14, 0x61, 0x67,
  0xf2, 0xa8, 0x26, 0x23, 0xdd, 0xa7, 0xd9, 0xa3, 0xf1, 0x35, 0xcf, 0x3d,
  0xfd, 0x90, 0x21, 0x59, 0x9a, 0x53, 0x76, 0x17, 0x42, 0x1f, 0xae, 0x63,
  0x59, 0xc2, 0xdf, 0xca, 0xfc, 0x03, 0x4e, 0x12, 0xfa, 0x9a, 0xc1, 0x4a,
  0xd8, 0xa1, 0x2b, 0x57, 0xd1, 0x66, 0xc1, 0x5d, 0x33, 0x20, 0x08, 0xc9,
  0x60, 0xa2, 0x0b, 0x2e, 0x5c, 0x67, 0xc9, 0x36, 0x47, 0x6e, 0x69, 0xbc,
  0xd7, 0x4c, 0x15, 0xcd, 0x02, 0x64, 0xa9, 0xa7, 0x2b, 0x06, 0x28, 0xff,
  0x05, 0xb0, 0xef, 0x4a, 0x1c, 0x11, 0xca, 0xea, 0x10, 0x1e, 0x29, 0xfb,
  0x21, 0x76, 0x70, 0xc6, 0x11, 0xc9, 0x0a, 0x05, 0x23, 0x3d, 0xce, 0xdb,
  0xb0, 0x36, 0xbb, 0xce, 0x6a, 0x1c, 0x43, 0xe7, 0xa3, 0x60, 0x00, 0xa7,
  0x17, 0x3f, 0xc9, 0x0d, 0x3f, 0x0b, 0x15, 0xd6, 0xc2, 0x5b, 0x99, 0x17,
  0x97, 0x12, 0xf8, 0x4c, 0xf3, 0xca, 0xef, 0x69, 0x4f, 0x45, 0xab, 0x69,
  0xde, 0x2e, 0x9e, 0x07, 0xdd, 0xa0, 0xac, 0xd9, 0x51, 0x93, 0x26, 0x2e,
  0xb5, 0x16, 0x36, 0x15, 0x9f, 0xfd, 0xc6, 0xff, 0x43, 0x55, 0x16, 0x68,
  0x2f, 0xbd, 0x52, 0xad, 0x5c, 0xcf, 0xa4, 0x4e, 0x10, 0x94, 0x1f, 0xcd,
  0xbe, 0xdd, 0x23, 0x9b, 0x20, 0x12, 0x8f, 0x05, 0xa8, 0xe6, 0xc6, 0x6b,
  0xb7, 0x28, 0x8f, 0x37, 0xbd, 0x28, 0x4e, 0x45, 0xed, 0x00, 0x60, 0x66,
  0xf8, 0xe4, 0x9d, 0x5b, 0x11, 0x68, 0x0d, 0xe9, 0xc7, 0xe7, 0xd4, 0x97,
  0xab, 0xf3, 0xe0, 0x36, 0x4c, 0xfa, 0x3c, 0xb0, 0x3f, 0xa5, 0x1a, 0xed,
  0x3c, 0x38, 0x46, 0x4d, 0xae, 0xbd, 0xc9, 0x48, 0x8f, 0x2f, 0x63, 0x51,
  0x06, 0x5c, 0x65, 0xf7, 0x2e, 0x45, 0x37, 0xf9, 0x97, 0x35, 0x09, 0x6f,
  0x4e, 0xbe, 0xaa, 0xa6, 0x9d, 0x6d, 0x08, 0x8c, 0x25, 0xdb, 0x26, 0xfa,
  0x03, 0xcb, 0xa8, 0x25, 0xc6, 0x37, 0xfd, 0xf7, 0xc4, 0xd8, 0x9a, 0xb9,
  0x7a, 0xaa, 0x61, 0x6a, 0x6d, 0x9f, 0x7f, 0x32, 0x56, 0xd2, 0x43, 0xbf,
  0x70, 0x94, 0x14, 0x4e, 0x6c, 0xd1, 0x51, 0xde, 0x95, 0xeb, 0x5d, 0x6b,
  0xca, 0x45, 0x55, 0x21, 0x07, 0xe6, 0x2e, 0x19, 0x02, 0x24, 0xb8, 0xec,
  0x76, 0xc6, 0x68, 0xd8, 0xf6, 0x01, 0x77, 0x88, 0x22, 0x22, 0xe9, 0xa4,
  0x0d, 0x29, 0xfb, 0xc8, 0xa4, 0x0f, 0x53, 0x08, 0x05, 0xb3, 0x61, 0x49,
  0xd4, 0xb9, 0x0e, 0xec, 0x1a, 0xc2, 0xbc, 0x58, 0x42, 0xd6, 0x49, 0xc2,
  0x62, 0xb7, 0x64, 0xa0, 0x54, 0xf1, 0xb5, 0x5a, 0x37, 0x05, 0xa9, 0x17,
  0xd3, 0xfd, 0x15, 0xd0, 0x11, 0x0b, 0x53, 0x24, 0xc0, 0x48, 0x99, 0x3a,
  0x44, 0x42, 0xb3, 0xaf, 0xa8, 0x6a, 0x14, 0x33, 0xfe, 0xb9, 0x61, 0xcc,
  0x7e, 0x09, 0x2f, 0x2d, 0x24, 0xdc, 0xec, 0x5f, 0x05, 0xb6, 0xea, 0xf9,
  0xdb, 0x2e, 0x3d, 0xd7, 0x03, 0x65, 0xd5, 0x33, 0x52, 0x2b, 0x03, 0xfe,
  0x3e, 0xa4, 0x23, 0xa1, 0xf7, 0xa7, 0x58, 0xcf, 0xfb, 0xd0, 0xd3, 0x44,
  0x7d, 0x9a, 0x24, 0xfe, 0x15, 0x58, 0xe8, 0x4a, 0xa4, 0xa0, 0x21, 0x50,
  0x2e, 0xc5, 0xd8, 0x5b, 0xbe, 0x4b, 0x0b, 0x45, 0xf9, 0xa4, 0xa8, 0xaa,
  0x0f, 0x5a, 0xa3, 0x9a, 0x60, 0xa7, 0xdf, 0x5b, 0xd0, 0x94, 0x1a, 0x28,
  0x36, 0x1a, 0xdf, 0xa8, 0x33, 0xa5, 0x1a, 0x16, 0xe1, 0xfd, 0x30, 0xc7,
  0xd1, 0xcc, 0x1d, 0xfc, 0x5b, 0xdf, 0xed, 0x18, 0xf9, 0x20, 0xd4, 0x2c,
  0xfb, 0xa7, 0x4e, 0x54, 0x97, 0x3d, 0xe7, 0x0a, 0x4d, 0x26, 0xf6, 0x64,
  0x60, 0x38, 0x11, 0x24, 0xe5, 0xa6, 0x94, 0x28, 0x9a, 0xd0, 0x12, 0x23,
  0x93, 0xea, 0x09, 0xa6, 0xa7, 0xaf, 0x56, 0xe9, 0xc2, 0xc8, 0x27, 0x4c,
  0x16, 0xed, 0x28, 0x44, 0xce, 0xe9, 0xe9, 0x50, 0xbf, 0xc8, 0x40, 0x61,
  0xf3, 0x05, 0xae, 0x3a, 0xbd, 0xe6, 0xe0, 0x1d, 0xce, 0x4d, 0xa2, 0xd1,
  0x3f, 0xb4, 0x65, 0x2e, 0xe5, 0x2f, 0xc8, 0xca, 0xd1, 0x45, 0xf9, 0xcd,
  0x53, 0xaa, 0xe9, 0xf4, 0x3e, 0x66, 0x94, 0x01, 0xfa, 0xc8, 0x32, 0x9b,
  0x81, 0x71, 0xbc, 0xd6, 0xd0, 0xa9, 0x40, 0x3b, 0xa7, 0xd5, 0xb2, 0x63,
  0x37, 0xb1, 0x36, 0xfe, 0x21, 0xd3, 0xe1, 0xec, 0x97, 0x52, 0xbf, 0x9d,
  0xe8, 0x35, 0x1b, 0xc3, 0x49, 0xc4, 0x44, 0x0f, 0x28, 0x29, 0xed, 0x65,
  0x68, 0x26, 0x9a, 0x1c, 0x95, 0xf5, 0x3c, 0x90, 0x5e, 0xe9, 0xfb, 0x0b,
  0xeb, 0xa3, 0x29, 0x21, 0x02, 0xf1, 0x34, 0x3c, 0x5e, 0xba, 0x64, 0x2b,
  0xc4, 0x70, 0xe9, 0xa6, 0x77, 0x6b, 0xa0, 0x33, 0x0c, 0x90, 0xb9, 0x0e,
  0xce, 0x5c, 0xcc, 0x00, 0x65, 0x1f, 0x06, 0xe5, 0x6a, 0xf5, 0xb7, 0x6a,
  0xfa, 0xf6, 0x06, 0xcd, 0xea, 0x12, 0xca, 0xe4, 0x2b, 0x52, 0xef, 0x96,
  0x9a, 0xf8, 0x9e, 0x8f, 0xec, 0x9c, 0x75, 0x20, 0x9b, 0xed, 0xe1, 0x5d,
  0x4f, 0x2b, 0x59, 0x2c, 0x85, 0xca, 0x0b, 0xd4, 0x73, 0xca, 0x27, 0x97,
  0x5e, 0xab, 0xb8, 0x92, 0x3c, 0xdf, 0x76, 0xde, 0xba, 0xb0, 0xa5, 0xf9,
  0x96, 0x63, 0x25, 0x89, 0xb2, 0x44, 0x16, 0x30, 0x58, 0x36, 0x62, 0x1a,
  0x37, 0xe8, 0xf4, 0x26, 0x1b, 0x91, 0xff, 0x8e, 0xe0, 0x61, 0xc7, 0x45,
  0xa1, 0x84, 0xa5, 0x95, 0x4e, 0x82, 0xcd, 0x8e, 0x02, 0x24, 0x9c, 0xa7,
  0xaf, 0x9c, 0x66, 0xff, 0x9d, 0x03, 0x69, 0x68, 0x61, 0xc3, 0xcd, 0xe6,
  0x4d, 0x41, 0x84, 0x84, 0xed, 0x2b, 0x92, 0x96, 0xed, 0x83, 0xb0, 0x14,
  0xb9, 0x4f, 0x81, 0xc4, 0xdc, 0x89, 0x57, 0x2e, 0xd3, 0xac, 0x8a, 0xed,
  0x49, 0xd3, 0xf3, 0x54, 0x8d, 0x40, 0xd2, 0x96, 0x56, 0x4f, 0xa7, 0x43,
  0xd5, 0x50, 0xe5, 0xa6, 0x55, 0x13, 0x5b, 0x8d, 0xc9, 0xd2, 0xfc, 0xed,
  0x4a, 0x47, 0x31, 0x33, 0x5b, 0xca, 0x35, 0x58, 0x11, 0x55, 0xa7, 0xde,
  0xa6, 0xd3, 0x30, 0xc2, 0xcb, 0x5a, 0x3d, 0xe2, 0x44, 0x16, 0xa1, 0xad,
  0xff, 0x23, 0xc5, 0x9c, 0x86, 0xb1, 0x61, 0x6f, 0x35, 0xd7, 0x9a, 0xfd,
  0x93, 0x06, 0x72, 0x93, 0x6c, 0x02, 0x08, 0x55, 0xdd, 0x39, 0xfd, 0xc6,
  0x53, 0x31, 0xe5, 0xe5, 0xc5, 0x70, 0xcc, 0xdf, 0xc1, 0x17, 0x75, 0xfd,
  0x3a, 0xb6, 0xdf, 0xb7, 0x5a, 0x6a, 0x4d, 0x5c, 0xfd, 0x54, 0xae, 0xa0,
  0x0e, 0xf8, 0x66, 0x61, 0x51, 0x33, 0xa0, 0xa7, 0x04, 0x3d, 0xef, 0x0a,
  0x55, 0x76, 0xee, 0xd0, 0xf5, 0x1d, 0x2c, 0x33, 0x9b, 0x14, 0xd9, 0x96,
  0xa1, 0xc7, 0xd0, 0xb0, 0xad, 0x3e, 0x75, 0x62, 0x83, 0x3f, 0xe4, 0xf1,
  0x19, 0xa0, 0x32, 0x8b, 0x45, 0x17, 0xfa, 0x0c, 0xe9, 0xe6, 0x1c, 0x74,
  0x38, 0x3a, 0x82, 0xb6, 0x32, 0x48, 0xdc, 0x71, 0x5a, 0x12, 0x39, 0xab,
  0x99, 0x46, 0xd6, 0x23, 0x5a, 0x2d, 0x40, 0xbd, 0xdd, 0xc7, 0x3c, 0xea,
  0x33, 0xcc, 0xe3, 0xab, 0xd2, 0x45, 0xfd, 0xd9, 0x2c, 0xcd, 0xa3, 0x22,
  0x4d, 0x13, 0x47, 0x0a, 0x71, 0x8f, 0xe5, 0x9a, 0x67, 0x2d, 0x98, 0x68,
  0x53, 0xd1, 0xa5, 0x6b, 0x86, 0xfa, 0x16, 0x70, 0x97, 0xbd, 0x5a, 0x50,
  0xc2, 0x9a, 0x5e, 0x25, 0xd4, 0x2b, 0x8a, 0x6d, 0x96, 0x98, 0x87, 0xc0,
  0x63, 0x0a, 0xe4, 0x08, 0xdc, 0xd8, 0x32, 0x76, 0x10, 0x6b, 0xe8, 0x23,
  0x33, 0xf5, 0x51, 0xe3, 0x06, 0x4f, 0x27, 0xd5, 0x21, 0xf4, 0x01, 0x0b,
  0xaa, 0x32, 0xbb, 0xb4, 0xb5, 0x71, 0x0b, 0x54, 0x26, 0xab, 0x17, 0xb0,
  0x41, 0x42, 0x0e, 0x8a, 0xe5, 0xed, 0x5b, 0xe8, 0xa3, 0x1e, 0x93, 0x3a,
  0x6d, 0xe5, 0x00, 0x6b, 0x37, 0xab, 0x96, 0x49, 0x00, 0x2e, 0x11, 0x60,
  0x4c, 0x32, 0xfc, 0x82, 0x42, 0x9d, 0x9b, 0x9a, 0x50, 0xef, 0xff, 0xb0,
  0xbd, 0xee, 0x90, 0x5d, 0xb0, 0xaf, 0xf1, 0x62, 0xb0, 0x28, 0xe0, 0xb1,
  0xf7, 0xb1, 0xab, 0xf1, 0x4f, 0x49, 0x40, 0x96, 0xe3, 0xff, 0xb0, 0xe8,
  0xb1, 0x12, 0x6c, 0xd5, 0x5b, 0x28, 0xba, 0x03, 0x92, 0x84, 0xbb, 0x95,
  0x77, 0xbc, 0xa2, 0x86, 0xc0, 0xaa, 0x89, 0x55, 0x73, 0x3b, 0xf2, 0x73,
  0xeb, 0x53, 0xc6, 0x68, 0x25, 0xc0, 0x60, 0x22, 0xbb, 0x3f, 0xae, 0x5b,
  0x53, 0x9c, 0x55, 0x88, 0xb6, 0xc9, 0x5a, 0x05, 0x9a, 0x44, 0x97, 0xd3,
  0x2c, 0xb4, 0x12, 0x44, 0xa4, 0x16, 0xc5, 0x1c, 0x91, 0xb3, 0xb7, 0x53,
  0x95, 0xc9, 0xe8, 0xa6, 0x4b, 0xe8, 0x5f, 0xbe, 0xff, 0x0f, 0x22, 0xa3,
  0x4a, 0x1e, 0xce, 0x59, 0x54, 0xdd, 0x2e, 0x06, 0x37, 0xa6, 0x91, 0xdb,
  0xcb, 0x6a, 0xfa, 0xe3, 0x18, 0x03, 0x00, 0x93, 0x2e, 0x1c, 0xbe, 0x6f,
  0xb7, 0x43, 0x06, 0x75, 0x96, 0xc3, 0xc4, 0x6b, 0xa2, 0x33, 0x73, 0x5d,
  0xa4, 0xe5, 0x64, 0x76, 0x98, 0x25, 0x48, 0xec, 0xc2, 0x99, 0x8d, 0x60,
  0xca, 0x84, 0xce, 0x66, 0x6c, 0xf9, 0xeb, 0x5b, 0x1c, 0xe8, 0xd0, 0xd8,
  0x7e, 0x37, 0x1e, 0xdf, 0xee, 0x07, 0xfc, 0xda, 0x6b, 0x9a, 0x12, 0xbc,
  0x18, 0x91, 0xe8, 0x9d, 0x02, 0x84, 0xe6, 0x6a, 0xdc, 0x19, 0x5c, 0x8d,
  0x95, 0x45, 0xab, 0xc7, 0x32, 0xfe, 0x76, 0x5b, 0x11, 0x6c, 0xf6, 0x25,
  0x8c, 0x37, 0x05, 0xcf, 0x01, 0x86, 0xd0, 0x6e, 0x91, 0x3a, 0x6e, 0x1b,
  0xd5, 0xf3, 0x96, 0x8c, 0xf0, 0xac, 0x6c, 0x87, 0xe2, 0x11, 0xfb, 0x4e,
  0xf9, 0x92, 0x2b, 0xd5, 0x63, 0x26, 0x9f, 0x2e, 0x55, 0xf1, 0xc2, 0xc6,
  0x0b, 0x37, 0x10, 0x75, 0xbe, 0x91, 0x65, 0x01, 0x33, 0x96, 0xe3, 0xbc,
  0x67, 0x97, 0x49, 0x1b, 0x92, 0xa0, 0x88, 0xd3, 0x1c, 0xfd, 0x8b, 0x98,
  0x04, 0xbc, 0x67, 0x8f, 0xa3, 0xb3, 0x69, 0x31, 0xdc, 0xf7, 0x88, 0x29,
  0x4b, 0xa3, 0x64, 0x3d, 0x1c, 0x45, 0x87, 0x2c, 0x55, 0x8c, 0x39, 0x4a,
  0x38, 0x0f, 0x8f, 0x69, 0x4f, 0x53, 0xed, 0xf8, 0x24, 0xd9, 0xac, 0x8d,
  0xf4, 0xe3, 0x30, 0x06, 0x34, 0x5a, 0x06, 0x49, 0x05, 0x5c, 0xe3, 0x62,
  0x39, 0x10, 0x3b, 0x01, 0xdf, 0x46, 0x07, 0x02, 0x45, 0x29, 0x08, 0x1d,
  0x45, 0xd4, 0xed, 0x53, 0xdc, 0x48, 0x33, 0xd0, 0xd0, 0xf0, 0x1a, 0x49,
  0xdf, 0x03, 0x20, 0x55, 0x16, 0x35, 0x03, 0x25, 0xff, 0x4b, 0x5a, 0x0f,
  0x27, 0xdd, 0xd0, 0x02, 0x54, 0xe9, 0xe2, 0xf7, 0x08, 0x18, 0x3b, 0x56,
  0x13, 0x19, 0x06, 0xfc, 0x47, 0x61, 0xf6, 0x40, 0x09, 0x47, 0x35, 0x4b,
  0x23, 0x04, 0xd7, 0x50, 0x37, 0xf6, 0xf6, 0x14, 0xd9, 0x12, 0x02, 0x56,
  0x67, 0xd2, 0x02, 0x36, 0xfe, 0xe8, 0x13, 0xf9, 0x18, 0x2b, 0x09, 0xeb,
  0xee, 0x35, 0xca, 0x4b, 0x55, 0x27, 0x73, 0x0b, 0x25, 0x2b, 0x5e, 0x5e,
  0x00, 0x28, 0xda, 0xe5, 0x05, 0x60, 0x51, 0xd2, 0xf5, 0x15, 0x43, 0xe6,
  0x30, 0xf6, 0x37, 0x35, 0x1b, 0x02, 0x04, 0x18, 0x2b, 0x5e, 0x4e, 0x36,
  0x43, 0x1c, 0x3d, 0xe6, 0x40, 0xe2, 0x34, 0x0d, 0x34, 0x23, 0x59, 0x58,
  0x3f, 0xcf, 0x3d, 0xec, 0x1a, 0x44, 0xf8, 0x2a, 0xeb, 0x05, 0x18, 0x18,
  0xe7, 0x03, 0xe1, 0x4f, 0x00, 0x57, 0x56, 0xe4, 0xf2, 0xff, 0x24, 0x50,
  0x3b, 0x1d, 0x1e, 0x3b, 0x1b, 0xf8, 0x39, 0xe7, 0x58, 0x00, 0xed, 0x4d,
  0x51, 0xc4, 0x00, 0xe5, 0x4f, 0x29, 0x68, 0xb7, 0x3d, 0x06, 0x14, 0xea,
  0xf4, 0xc5, 0x7f, 0x22, 0xdf, 0x0f, 0x48, 0x0a, 0x1a, 0x39, 0xfa, 0x10,
  0x35, 0xc1, 0x7e, 0x33, 0x4b, 0x17, 0x2a, 0x03, 0x6c, 0x56, 0x03, 0x3f,
  0xfe, 0x2b, 0x07, 0x07, 0xf4, 0x1d, 0x35, 0x3a, 0x1d, 0x17, 0x56, 0x5b,
  0x09, 0x1b, 0x3e, 0x47, 0x29, 0xf9, 0x36, 0x02, 0x09, 0x06, 0x09, 0x23,
  0xe3, 0x48, 0x53, 0x2a, 0x5f, 0x25, 0x38, 0x05, 0x4b, 0x11, 0x0f, 0xdf,
  0x38, 0xfb, 0x0d, 0x40, 0x4b, 0x27, 0x4b, 0xec, 0x10, 0x0d, 0xec, 0x3b,
  0x0d, 0xfc, 0x60, 0x46, 0x19, 0x49, 0x48, 0xfd, 0x5e, 0x03, 0xff, 0xe9,
  0x1f, 0xe5, 0xf4, 0x41, 0xf0, 0x21, 0x0b, 0x11, 0x12, 0x0b, 0x15, 0xdc,
  0xd1, 0x2f, 0xed, 0x26, 0x58, 0x4c, 0x3d, 0x18, 0x42, 0x20, 0x33, 0xde,
  0x20, 0xde, 0x13, 0x4c, 0x46, 0x2f, 0x0e, 0x32, 0x20, 0xdf, 0x2f, 0x44,
  0x15, 0x17, 0x43, 0x4b, 0x5d, 0x5c, 0xdb, 0x59, 0x29, 0xe2, 0x56, 0x07,
  0xdb, 0x36, 0x26, 0x02, 0x1e, 0x11, 0x10, 0x37, 0xd2, 0xe1, 0x22, 0x1f,
  0x39, 0xfe, 0x43, 0x10, 0x5d, 0x35, 0xf8, 0x1e, 0x37, 0xde, 0xe8, 0xeb,
  0xf2, 0x26, 0xfa, 0x16, 0x4c, 0x22, 0xb6, 0xfb, 0x46, 0x15, 0xf2, 0x18,
  0xf3, 0x61, 0x09, 0xe9, 0x22, 0x61, 0x1c, 0x07, 0x3f, 0x04, 0x3c, 0x05,
  0x04, 0x00, 0xdc, 0xf4, 0xf8, 0x51, 0xde, 0x59, 0xe6, 0xfe, 0x26, 0x3c,
  0xef, 0x27, 0x40, 0x2c, 0x51, 0x35, 0xcd, 0x03, 0xc7, 0xeb, 0x0c, 0x0d,
  0xf6, 0xea, 0x3f, 0x02, 0xf4, 0xe8, 0x01, 0x54, 0xd4, 0xf3, 0xee, 0x23,
  0xfe, 0xef, 0x17, 0x10, 0x07, 0x05, 0x32, 0x33, 0x43, 0x33, 0x03, 0x3a,
  0x11, 0xe3, 0x1e, 0xf9, 0xf9, 0x2b, 0xe3, 0x2b, 0xd7, 0x25, 0x36, 0x57,
  0xe6, 0xfa, 0x4a, 0xdc, 0xfd, 0xec, 0xce, 0x2a, 0xd4, 0xe2, 0x39, 0x18,
  0xe3, 0xe4, 0x3a, 0x52, 0x49, 0x59, 0xe9, 0x4f, 0x3b, 0x34, 0x61, 0xec,
  0xc2, 0xe2, 0x59, 0xe3, 0x02, 0xe2, 0x27, 0x4b, 0xde, 0x15, 0x47, 0x62,
  0xf5, 0x44, 0x3b, 0x05, 0x3e, 0xdc, 0x0e, 0xef, 0xf5, 0x2f, 0x58, 0x0b,
  0xf8, 0x46, 0xfb, 0x5b, 0x26, 0xf3, 0x37, 0x41, 0x5e, 0xdd, 0xfc, 0x3b,
  0xff, 0x1a, 0x46, 0xe6, 0x52, 0x20, 0xe4, 0xff, 0x3a, 0x27, 0x3c, 0x28,
  0xe2, 0x26, 0x2f, 0x1e, 0x3e, 0x5b, 0xe8, 0x1a, 0x10, 0x1a, 0x38, 0xf4,
  0x3a, 0xf0, 0x03, 0xf0, 0xdc, 0x06, 0x44, 0xbc, 0x54, 0xe6, 0x24, 0x2d,
  0x3c, 0xb3, 0x2c, 0xe8, 0x59, 0x51, 0x33, 0xff, 0x16, 0x0a, 0x18, 0x37,
  0x35, 0x30, 0x55, 0x22, 0x0f, 0x35, 0xce, 0x2c, 0x49, 0x11, 0x2c, 0xea,
  0xd0, 0xe4, 0x32, 0x4c, 0x32, 0x17, 0x49, 0x0c, 0x2f, 0x15, 0x33, 0xf8,
  0x3b, 0x11, 0x29, 0xde, 0x20, 0x07, 0x39, 0xd2, 0xf9, 0x44, 0x2a, 0x04,
  0x26, 0xe2, 0xff, 0x28, 0x35, 0x2b, 0xef, 0x05, 0x30, 0xe4, 0x08, 0x2a,
  0x43, 0xec, 0x4f, 0x15, 0x16, 0x0e, 0x3e, 0x1f, 0x0b, 0x3e, 0x4c, 0x19,
  0x55, 0x0b, 0x1b, 0x1f, 0x41, 0x36, 0xfa, 0xca, 0x21, 0x01, 0x0d, 0x54,
  0x01, 0x35, 0x35, 0x14, 0x60, 0x1e, 0x06, 0xd6, 0xd3, 0x0b, 0x3a, 0xff,
  0x1d, 0x36, 0x42, 0x28, 0x4f, 0x0c, 0xe9, 0x0c, 0x38, 0x41, 0x19, 0x40,
  0x1b, 0x13, 0xf2, 0x16, 0xdb, 0x4b, 0x14, 0xcc, 0x3f, 0xde, 0xea, 0xe0,
  0x35, 0x16, 0x33, 0xf8, 0x2a, 0xeb, 0x3c, 0x09, 0x31, 0x45, 0x0a, 0x5c,
  0xf8, 0x39, 0x2a, 0x1e, 0x4f, 0x2c, 0xdd, 0x12, 0x04, 0x1a, 0x3a, 0x34,
  0x07, 0xde, 0x04, 0x10, 0x5a, 0xf7, 0x41, 0x53, 0x1e, 0x05, 0xe9, 0x26,
  0x24, 0xef, 0x2a, 0x01, 0x0a, 0x19, 0xd7, 0x4b, 0xea, 0xf1, 0x2a, 0x56,
  0xbd, 0x1a, 0x0e, 0xdf, 0x03, 0x2d, 0x14, 0xee, 0x30, 0x2f, 0x36, 0x02,
  0xfe, 0x26, 0xe1, 0x38, 0x2f, 0xdc, 0x27, 0x32, 0x2e, 0xe6, 0xf1, 0x0d,
  0x4d, 0x23, 0xdf, 0x12, 0x2d, 0xda, 0xd1, 0x04, 0x04, 0x34, 0x08, 0xb0,
  0x50, 0x68, 0x66, 0xe9, 0x44, 0xdf, 0x12, 0x6b, 0xdf, 0x16, 0xb9, 0xb5,
  0x44, 0xfa, 0x39, 0xb0, 0x4e, 0x3c, 0x2f, 0x14, 0x2a, 0xbc, 0x33, 0xcc,
  0x2a, 0x38, 0xdf, 0xce, 0x49, 0x51, 0x00, 0x62, 0xc0, 0x29, 0xb9, 0xda,
  0x57, 0xfb, 0xf4, 0xe6, 0xb6, 0xbf, 0x47, 0x41, 0xd8, 0x18, 0x5d, 0xd3,
  0xdc, 0x4e, 0x1c, 0xd7, 0x2b, 0x1c, 0x39, 0x3a, 0x2e, 0xf4, 0xe1, 0xce,
  0x40, 0xd0, 0xaa, 0x36, 0xe8, 0x3c, 0x4f, 0x49, 0xc3, 0x5a, 0xbb, 0x0f,
  0xd6, 0x5a, 0xc3, 0x28, 0xea, 0x3d, 0x51, 0xce, 0xe6, 0xc3, 0x08, 0x2a,
  0x3d, 0xdf, 0x00, 0xb8, 0x2d, 0xdf, 0xac, 0x5f, 0xe8, 0x5e, 0x42, 0xfe,
  0x9d, 0x26, 0xd3, 0x5a, 0xe0, 0x29, 0x38, 0x21, 0x2a, 0xb3, 0x10, 0x13,
  0xfa, 0x0f, 0xee, 0xb7, 0xb8, 0x3c, 0xab, 0x1b, 0x04, 0x44, 0xb8, 0x13,
  0x8d, 0x78, 0xfe, 0xed, 0x2d, 0xd9, 0x0d, 0x5f, 0x28, 0x40, 0xd0, 0xc4,
  0x25, 0xe0, 0x19, 0x31, 0x33, 0xbb, 0xc3, 0x67, 0xe4, 0x3a, 0xc6, 0x04,
  0xbe, 0x3b, 0xf3, 0xe5, 0xab, 0xbc, 0xaa, 0x60, 0x05, 0xfe, 0x26, 0x00,
  0xb6, 0xda, 0x05, 0xc5, 0x20, 0xbb, 0xfe, 0xd5, 0x15, 0x41, 0x52, 0x56,
  0x3f, 0xb5, 0x67, 0x44, 0xfd, 0xb1, 0xa6, 0xb6, 0xf8, 0xf3, 0xd4, 0x30,
  0xc5, 0x18, 0x5c, 0x36, 0x10, 0xd2, 0xc1, 0x2b, 0x3c, 0xdc, 0x3e, 0x3b,
  0xe6, 0xf8, 0xf8, 0x40, 0x5c, 0x3a, 0x59, 0x64, 0x1f, 0x51, 0xcf, 0xb0,
  0x03, 0x28, 0x1c, 0x4f, 0x05, 0x50, 0xc8, 0x30, 0x16, 0xc7, 0x51, 0xeb,
  0x04, 0x0d, 0x0d, 0x25, 0xcf, 0xf7, 0x33, 0x24, 0x15, 0xb1, 0x31, 0x48,
  0xc2, 0x2d, 0x16, 0x0e, 0x5c, 0x3d, 0xfa, 0x10, 0x3d, 0x2f, 0x47, 0x45,
  0x35, 0xe4, 0x69, 0x3b, 0xad, 0x3e, 0x32, 0x6b, 0xd8, 0x2c, 0x1a, 0xdb,
  0xcb, 0xd0, 0x58, 0x29, 0xc2, 0x2a, 0x1d, 0x66, 0xd1, 0xca, 0xea, 0x25,
  0x3d, 0xd6, 0x20, 0x5b, 0x23, 0xcc, 0x1f, 0x03, 0x07, 0xb1, 0x22, 0xdc,
  0x48, 0x32, 0xe2, 0x48, 0x3c, 0x38, 0x04, 0x2e, 0xde, 0x41, 0x23, 0xcd,
  0xb5, 0x40, 0xd9, 0xa8, 0xcc, 0xc3, 0x19, 0x32, 0x1f, 0x37, 0x28, 0xf2,
  0xf9, 0x7e, 0x50, 0xfd, 0x57, 0x16, 0xc7, 0x1c, 0x4a, 0x17, 0x1a, 0x02,
  0x03, 0xe8, 0x44, 0xe4, 0x11, 0x5a, 0xbf, 0x25, 0xcf, 0xdc, 0xd8, 0x08,
  0x29, 0x42, 0x43, 0x31, 0xc5, 0xe6, 0xbe, 0xd1, 0x1d, 0x16, 0x41, 0xaa,
  0xe7, 0x1b, 0xcd, 0x42, 0xb8, 0xfe, 0x21, 0x64, 0x00, 0xcb, 0x55, 0x50,
  0x2b, 0xe6, 0xd0, 0xef, 0x1f, 0x1b, 0xd8, 0x3e, 0x62, 0x0e, 0x4e, 0xca,
  0xc7, 0xd2, 0x31, 0xda, 0x26, 0xc6, 0xc1, 0x57, 0x12, 0xda, 0xe6, 0xf5,
  0x8c, 0xfd, 0xe8, 0xc5, 0xaa, 0xb3, 0xa1, 0x53, 0xdf, 0xcc, 0x16, 0xf3,
  0x9e, 0xed, 0x24, 0xe9, 0xd2, 0xa9, 0x8f, 0x7f, 0x3d, 0x38, 0x03, 0x18,
  0x31, 0xe3, 0xbf, 0x38, 0xdc, 0xf6, 0xf8, 0xf5, 0xd4, 0x52, 0xe1, 0xdb,
  0x9b, 0x7e, 0xf3, 0xa9, 0xf0, 0x02, 0x87, 0x04, 0xdf, 0x39, 0xb1, 0xaa,
  0xa4, 0xdf, 0x38, 0xdc, 0xe6, 0xb0, 0xd4, 0xee, 0x20, 0x09, 0x38, 0x35,
  0xa2, 0x21, 0xe3, 0x02, 0xed, 0xaf, 0x99, 0xe7, 0xda, 0x05, 0x5e, 0x04,
  0x93, 0x18, 0xca, 0xe5, 0x2f, 0x40, 0xb8, 0xf0, 0x01, 0xb1, 0x3f, 0x5c,
  0xe9, 0x0d, 0x44, 0xef, 0x3f, 0x47, 0x15, 0x08, 0xee, 0x1a, 0xcc, 0x28,
  0x0e, 0xfb, 0x4e, 0xd7, 0x33, 0x3f, 0xb8, 0x2b, 0xc3, 0xb2, 0xe6, 0xeb,
  0x1a, 0xf7, 0xf1, 0x56, 0xaf, 0xe2, 0xaa, 0x64, 0x27, 0x4c, 0x52, 0xb2,
  0xea, 0xdd, 0x1e, 0x5d, 0xc0, 0xad, 0x8e, 0x68, 0xb7, 0xe4, 0x28, 0xbe,
  0x13, 0xf8, 0x57, 0xc6, 0xf1, 0xcf, 0xb0, 0x06, 0x36, 0x32, 0xe4, 0x13,
  0xe1, 0x5e, 0x51, 0xd4, 0x24, 0x57, 0xa8, 0xe4, 0xf0, 0x4b, 0xc3, 0x36,
  0x0a, 0xc4, 0x4a, 0x2e, 0xae, 0x18, 0x12, 0x17, 0x18, 0x21, 0xe4, 0x08,
  0x02, 0x1f, 0x0f, 0xac, 0xc8, 0x58, 0x42, 0x66, 0x0c, 0x4b, 0xc4, 0x4d,
  0x1c, 0xce, 0x6c, 0xe1, 0x29, 0x53, 0x02, 0x41, 0xcd, 0x04, 0xda, 0xc6,
  0xf0, 0xe8, 0x0f, 0xc0, 0x3d, 0x4a, 0xc8, 0x6b, 0xe0, 0xe5, 0x0a, 0x54,
  0x34, 0xd2, 0xdd, 0xdf, 0x02, 0xd7, 0x02, 0x5c, 0xc7, 0xc1, 0xae, 0xd1,
  0xd3, 0x6e, 0x55, 0xd5, 0x5c, 0x3e, 0xc9, 0x64, 0xd7, 0x19, 0x5f, 0x19,
  0xfd, 0xb7, 0x33, 0x43, 0x2c, 0xea, 0xb3, 0x43, 0x2c, 0x5a, 0x29, 0xfd,
  0x1c, 0xf3, 0x5d, 0xea, 0x56, 0x4b, 0x51, 0x19, 0x62, 0x4f, 0xb0, 0xe6,
  0xf1, 0xcf, 0x1b, 0xda, 0x37, 0x10, 0xbf, 0xbe, 0xcb, 0xf6, 0xe8, 0x3c,
  0xf1, 0x3b, 0x13, 0xe0, 0x3c, 0xb1, 0xea, 0x1a, 0x45, 0xa8, 0xed, 0x28,
  0x32, 0x3b, 0x65, 0xfa, 0xe3, 0x59, 0x25, 0x62, 0x46, 0x38, 0xbf, 0xd9,
  0x1b, 0x38, 0x73, 0x04, 0x22, 0x2e, 0x3b, 0x0e, 0x2d, 0x09, 0x3e, 0xb8,
  0x03, 0x4a, 0xed, 0xec, 0xf0, 0x0b, 0xf3, 0x3c, 0x17, 0x25, 0xd0, 0x53,
  0x0b, 0x56, 0x5d, 0x1d, 0x40, 0xd0, 0x46, 0xd2, 0xe2, 0xf1, 0xfa, 0xc7,
  0xac, 0x2c, 0x1e, 0x50, 0xe4, 0x13, 0xff, 0x2a, 0x06, 0x2e, 0xc3, 0x5a,
  0x50, 0x95, 0xa4, 0x29, 0xc0, 0xbf, 0xc6, 0xf5, 0x73, 0x6c, 0x1d, 0x27,
  0x5d, 0x08, 0x6c, 0x32, 0xe0, 0xb9, 0xa2, 0x04, 0x68, 0xab, 0x1f, 0x6b,
  0x27, 0xa6, 0x61, 0xba, 0xc6, 0x7b, 0xd5, 0x48, 0x4c, 0xe3, 0x6f, 0xc1,
  0x17, 0x99, 0x71, 0x88, 0xbf, 0xbe, 0xba, 0x1e, 0x51, 0x87, 0x47, 0xe1,
  0x88, 0xda, 0x3a, 0x43, 0xa5, 0xde, 0xe2, 0x45, 0x21, 0x99, 0x2b, 0x53,
  0xa9, 0xb7, 0x5b, 0x9d, 0xff, 0xb5, 0xbf, 0x47, 0x02, 0xc6, 0x6c, 0xf7,
  0x2f, 0x4f, 0xbf, 0xbc, 0x91, 0x06, 0xac, 0xdd, 0x08, 0x20, 0x8e, 0xb6,
  0xe1, 0x8b, 0x8f, 0x5b, 0x5e, 0x47, 0xc1, 0xca, 0xb8, 0x1e, 0x01, 0xb0,
  0x7d, 0xd7, 0xc5, 0xaf, 0xf1, 0x04, 0xef, 0x00, 0x01, 0x29, 0x01, 0x92,
  0x77, 0xe7, 0x13, 0xd1, 0x2a, 0x15, 0x08, 0xb9, 0x4b, 0xc2, 0xfd, 0xb2,
  0xe0, 0xa2, 0x7c, 0xc8, 0x95, 0x1c, 0xa2, 0xdc, 0x4d, 0xa2, 0x64, 0x32,
  0x14, 0x27, 0x2a, 0x09, 0xa4, 0x21, 0xe1, 0xa4, 0x81, 0x90, 0x4e, 0xe9,
  0xe9, 0xd3, 0xb0, 0x6b, 0x8b, 0x88, 0xb6, 0xf1, 0xae, 0xbf, 0xe5, 0x3a,
  0xeb, 0xc0, 0x9c, 0x5a, 0x9a, 0xb9, 0x4b, 0xce, 0x27, 0x91, 0xa7, 0xb3,
  0xab, 0x0a, 0x91, 0x86, 0x9b, 0x0b, 0xec, 0x4e, 0x60, 0x72, 0xec, 0xab,
  0x56, 0x1c, 0x78, 0x7e, 0xcf, 0x13, 0xa6, 0xe4, 0x56, 0x99, 0x96, 0x00,
  0xee, 0xb3, 0x2e, 0x5c, 0x21, 0x69, 0xc9, 0x9e, 0x70, 0x99, 0xe2, 0x03,
  0x95, 0x47, 0x02, 0x29, 0xce, 0x6c, 0x7c, 0x6f, 0x1c, 0x24, 0x8b, 0x53,
  0x4d, 0xb6, 0x53, 0x97, 0xc9, 0x26, 0xc9, 0x6b, 0x60, 0xad, 0x30, 0xb5,
  0x5d, 0x0a, 0xa6, 0x3d, 0x53, 0x6c, 0x6f, 0xe9, 0xa7, 0xb1, 0x4d, 0xd5,
  0x0e, 0x43, 0x85, 0x08, 0xc0, 0xec, 0x8b, 0xb6, 0xa9, 0x59, 0x35, 0xa7,
  0x60, 0x04, 0x8d, 0x5f, 0xba, 0x25, 0xc9, 0x58, 0x98, 0x2e, 0x06, 0x88,
  0xbb, 0xa1, 0xca, 0xe5, 0x44, 0xc7, 0xdc, 0x2c, 0xe9, 0xc0, 0x28, 0x24,
  0x83, 0x8b, 0xde, 0xab, 0x2f, 0x98, 0x8e, 0xb4, 0xe3, 0x95, 0x18, 0x35,
  0x55, 0xd7, 0x05, 0xb4, 0xc7, 0x5b, 0xbc, 0x8f, 0x92, 0xbf, 0xd5, 0x62,
  0xad, 0xc2, 0xe6, 0x98, 0xc9, 0x89, 0x98, 0x22, 0x4a, 0x1d, 0x8d, 0x8a,
  0xc2, 0xce, 0x98, 0x38, 0x66, 0x4c, 0xc6, 0x87, 0xf5, 0x94, 0x22, 0xfb,
  0xf2, 0x6b, 0x95, 0x8d, 0x30, 0xb8, 0x5e, 0x84, 0xa4, 0x09, 0x83, 0x33,
  0x28, 0xe1, 0xec, 0x93, 0x23, 0xa3, 0xb2, 0x9d, 0xe0, 0xec, 0xdc, 0xd9,
  0xae, 0x73, 0x60, 0x83, 0x90, 0x04, 0x2a, 0x0c, 0x31, 0xc2, 0xc4, 0x7c,
  0x94, 0xef, 0x8b, 0x2c, 0x99, 0x9f, 0xc9, 0x02, 0xd4, 0xa5, 0xe9, 0x14,
  0x45, 0x9f, 0xab, 0x27, 0x50, 0xb1, 0x9a, 0x44, 0x23, 0xce, 0x8c, 0x05,
  0x37, 0x2a, 0x2d, 0x32, 0xba, 0xf2, 0xa7, 0x9b, 0x54, 0x16, 0x3e, 0xa8,
  0xd8, 0x93, 0x82, 0x3a, 0xe9, 0x5d, 0x08, 0x0d, 0xff, 0xf0, 0x32, 0xf4,
  0x6b, 0x77, 0x25, 0x30, 0x4a, 0xef, 0x67, 0x72, 0x1b, 0xbe, 0xa7, 0x8c,
  0xc7, 0xd8, 0xa9, 0xa5, 0x25, 0x46, 0x82, 0xa2, 0x48, 0x52, 0xf3, 0x0a,
  0x84, 0x8c, 0x1f, 0x14, 0xad, 0x77, 0x66, 0x40, 0x92, 0x79, 0x52, 0x15,
  0x89, 0xff, 0x6c, 0x16, 0x5d, 0x44, 0x14, 0x8c, 0x10, 0x37, 0xf7, 0x0e,
  0x53, 0x48, 0x19, 0x12, 0x4b, 0xa7, 0xf0, 0x68, 0xec, 0xc1, 0x9d, 0x5e,
  0xcc, 0xa2, 0x30, 0xfc, 0x27, 0x47, 0x67, 0xbe, 0x0a, 0x95, 0xdf, 0x84,
  0x4e, 0xc0, 0x7a, 0x31, 0x00, 0x25, 0x7c, 0xe4, 0xa0, 0xae, 0x37, 0x9a,
  0xd5, 0xae, 0x34, 0x0b, 0xa0, 0x76, 0x3b, 0xe2, 0x2e, 0x8b, 0xfe, 0x61,
  0xe0, 0xb0, 0x9b, 0x28, 0xa4, 0x5f, 0x35, 0x4f, 0x92, 0x8a, 0xba, 0xd3,
  0xc2, 0x39, 0xe1, 0x33, 0x02, 0xe3, 0x36, 0x2b, 0x6f, 0xa0, 0x78, 0xcd,
  0xc8, 0x20, 0x35, 0x05, 0xb4, 0x23, 0x93, 0x2b, 0xe4, 0xd2, 0x28, 0xdd,
  0xbf, 0x93, 0xb3, 0x5a, 0x7b, 0x07, 0x1b, 0x9c, 0x30, 0x73, 0x96, 0x17,
  0x00, 0xc2, 0x70, 0xf9, 0x20, 0x2f, 0x85, 0x89, 0x13, 0xf8, 0x22, 0x47,
  0xbe, 0x36, 0xf6, 0x45, 0xfb, 0x14, 0xc3, 0xfa, 0xa3, 0x2f, 0xaf, 0xd6,
  0x6c, 0x0c, 0xfe, 0xd0, 0x70, 0x61, 0x87, 0xa6, 0x0c, 0x4b, 0x63, 0xeb,
  0xc5, 0xab, 0x12, 0x61, 0x30, 0xa5, 0x4b, 0x2d, 0x0a, 0xb4, 0x5b, 0xff,
  0x6a, 0x3d, 0xb0, 0xc3, 0x41, 0x9e, 0x08, 0xb4, 0xc8, 0x8b, 0xb2, 0xf3,
  0xc8, 0xe1, 0xcc, 0x07, 0x08, 0xb4, 0x21, 0x0d, 0xa9, 0x6d, 0x4d, 0x61,
  0x07, 0x2a, 0x61, 0x5d, 0xc7, 0x3a, 0x60, 0x8d, 0xe1, 0xf1, 0xe5, 0xbb,
  0xae, 0xf0, 0x0a, 0x79, 0xcb, 0xa7, 0xf5, 0xed, 0x04, 0x5f, 0xea, 0xdd,
  0x06, 0x84, 0x5d, 0x57, 0xe4, 0x2d, 0xac, 0x23, 0x31, 0x8b, 0xf4, 0x91,
  0x81, 0x42, 0x6c, 0xa8, 0xae, 0x2f, 0x5e, 0x1e, 0x24, 0xd4, 0x47, 0xbb,
  0xd0, 0x2c, 0xde, 0x28, 0x19, 0x66, 0x9c, 0xf1, 0x16, 0x90, 0xb2, 0xa9,
  0xf5, 0x81, 0xf1, 0xe7, 0x32, 0x62, 0x3d, 0x3b, 0x6a, 0x07, 0x3f, 0x26,
  0xc5, 0x3d, 0x54, 0xa8, 0xf1, 0x5e, 0xda, 0xff, 0x24, 0x60, 0x26, 0x22,
  0xb6, 0xf3, 0x8e, 0xdd, 0xf0, 0x27, 0x5e, 0x00, 0x5b, 0x6c, 0x78, 0x99,
  0x0e, 0xaa, 0x2b, 0x03, 0x14, 0x2e, 0x25, 0x28, 0x39, 0x3b, 0xc3, 0x42,
  0x08, 0x1b, 0xba, 0x56, 0x24, 0x04, 0x2b, 0xd0, 0x12, 0xfe, 0x30, 0x0c,
  0x04, 0xfb, 0x2f, 0xc7, 0x41, 0xc0, 0x50, 0xf1, 0x2d, 0x3d, 0xe5, 0x07,
  0x13, 0xe9, 0xf4, 0xef, 0x32, 0xbe, 0xee, 0xce, 0xaa, 0x0f, 0x46, 0x52,
  0x2c, 0xaa, 0x33, 0x39, 0x2e, 0xea, 0xcb, 0xe4, 0xdb, 0x4e, 0x29, 0xd5,
  0x1f, 0xe4, 0x03, 0xf5, 0x22, 0xe7, 0x24, 0xb2, 0xf0, 0x4c, 0x56, 0xf8,
  0x52, 0xbf, 0x17, 0xda, 0x11, 0x00, 0x49, 0x32, 0x1b, 0xd5, 0x4d, 0x0c,
  0x6a, 0xaa, 0x15, 0xce, 0x11, 0x0f, 0x12, 0xc3, 0xe9, 0xc4, 0xfe, 0xe3,
  0x2f, 0x07, 0xe7, 0x09, 0x3b, 0x5b, 0x26, 0xbc, 0x42, 0x46, 0x0f, 0x2a,
  0x07, 0x41, 0x2e, 0xd2, 0x4c, 0x2c, 0x5c, 0x0d, 0x1e, 0x22, 0xeb, 0x4e,
  0x44, 0x3b, 0xd2, 0xce, 0xd7, 0x4c, 0xe8, 0xd8, 0x1d, 0x0d, 0x55, 0x40,
  0x68, 0xb9, 0x18, 0x3e, 0xf4, 0x17, 0x1c, 0x40, 0xe1, 0x2d, 0x12, 0x35,
  0x31, 0xcd, 0xfb, 0x46, 0x29, 0x01, 0x18, 0xb9, 0x18, 0xc7, 0xe3, 0xee,
  0xec, 0x06, 0xea, 0x05, 0x4e, 0x58, 0x44, 0x00, 0x5d, 0xca, 0x57, 0x16,
  0x1f, 0xf5, 0xef, 0xdb, 0x40, 0x15, 0x06, 0x9b, 0xf0, 0x3b, 0x46, 0xd6,
  0xec, 0x9c, 0x35, 0x55, 0x4d, 0x5b, 0x7f, 0x20, 0x1c, 0x25, 0xcc, 0x3d,
  0x7b, 0xa1, 0xf4, 0x3a, 0x35, 0xdb, 0xdd, 0x08, 0x3d, 0x10, 0x38, 0x1f,
  0x69, 0xed, 0x49, 0x25, 0x49, 0x0c, 0xdf, 0xa0, 0x16, 0x18, 0xef, 0x50,
  0xee, 0x14, 0x0d, 0x39, 0x1e, 0x26, 0x6f, 0x23, 0x2c, 0xf9, 0xbf, 0x59,
  0xe9, 0x1b, 0x3b, 0xe7, 0xc9, 0x01, 0x58, 0xf8, 0x2f, 0xd4, 0x01, 0xf3,
  0xe3, 0xc6, 0xc8, 0x27, 0x34, 0xfa, 0xf5, 0xb6, 0x36, 0x1b, 0x19, 0x32,
  0x1a, 0xac, 0x1b, 0x0e, 0x00, 0xee, 0x23, 0xc9, 0x43, 0x06, 0x1b, 0xf3,
  0x53, 0xee, 0xf4, 0x23, 0x23, 0x1f, 0xe5, 0xcf, 0x19, 0xf1, 0x52, 0x3b,
  0x5e, 0x35, 0x19, 0x46, 0x13, 0x19, 0xff, 0xbf, 0xe1, 0xca, 0x14, 0x35,
  0xfd, 0x3a, 0xff, 0x38, 0x0d, 0x1d, 0x4f, 0xa9, 0x3c, 0x1a, 0x14, 0x4a,
  0x3f, 0x23, 0xaf, 0x31, 0xd2, 0x19, 0x0e, 0xf7, 0xf4, 0x2d, 0x2c, 0xd4,
  0xf6, 0xcc, 0xd7, 0xbf, 0xeb, 0x3f, 0x2e, 0x44, 0x0d, 0x0e, 0x3f, 0x06,
  0x19, 0xf2, 0xfa, 0x42, 0x21, 0xe1, 0x5c, 0xc6, 0xe9, 0x01, 0x37, 0x59,
  0x26, 0x42, 0x34, 0x4b, 0xc3, 0xff, 0x6f, 0x19, 0x25, 0x55, 0x56, 0x14,
  0xf0, 0xfd, 0xac, 0xee, 0xf7, 0x42, 0x3a, 0xdd, 0xfc, 0x53, 0xcc, 0xfc,
  0x35, 0xe4, 0xee, 0x41, 0xdb, 0x3a, 0x4d, 0x43, 0x30, 0x39, 0x12, 0x2c,
  0xf1, 0xc4, 0xc0, 0x27, 0xd0, 0xe3, 0x45, 0x20, 0xf6, 0x05, 0x24, 0xd4,
  0x6d, 0x04, 0x02, 0x25, 0x17, 0x46, 0x6d, 0xff, 0x40, 0xd0, 0xef, 0x2b,
  0x41, 0x09, 0x06, 0xf2, 0x3e, 0xdb, 0x61, 0xf6, 0xf3, 0x35, 0xdf, 0x4d,
  0x75, 0x35, 0x5b, 0xef, 0x0b, 0xf3, 0x16, 0xf0, 0x65, 0x16, 0xeb, 0xd0,
  0x4b, 0xdd, 0xfb, 0x51, 0x4a, 0x17, 0x53, 0x2f, 0xf8, 0x03, 0xe5, 0x29,
  0x42, 0xb6, 0x59, 0x13, 0xc9, 0xe4, 0x59, 0xb8, 0x3d, 0xc5, 0x52, 0xc4,
  0x5e, 0x10, 0xdf, 0x24, 0xdb, 0xf8, 0x3c, 0x10, 0x30, 0x05, 0x48, 0x43,
  0x41, 0xfc, 0x1a, 0x30, 0x5b, 0xe4, 0x0e, 0xd0, 0x5d, 0x39, 0xfd, 0x1f,
  0x0e, 0x13, 0x46, 0xfa, 0x46, 0xf3, 0xdd, 0x0a, 0xe0, 0x0c, 0x3e, 0xd7,
  0x25, 0x30, 0x44, 0x26, 0x37, 0x0a, 0xe8, 0xcf, 0xd6, 0x36, 0x4c, 0xed,
  0xef, 0x0d, 0xe9, 0xe2, 0x37, 0x29, 0x64, 0x0a, 0x2d, 0x35, 0x35, 0x49,
  0xf5, 0x05, 0x58, 0x4b, 0x54, 0xf4, 0x37, 0xcc, 0x33, 0x05, 0xe4, 0x14,
  0x15, 0x29, 0xda, 0xfb, 0x4b, 0xe1, 0x22, 0x2a, 0x53, 0x17, 0x3f, 0x3f,
  0xe0, 0x0d, 0xf4, 0xfb, 0x02, 0x11, 0x47, 0x06, 0x05, 0x5b, 0x22, 0x26,
  0x36, 0xc2, 0x2a, 0x4d, 0xe6, 0x33, 0xdc, 0x30, 0xf3, 0xd5, 0xc5, 0x3f,
  0x41, 0xf2, 0xdf, 0xf8, 0xfc, 0x42, 0x46, 0xa4, 0xaf, 0xcd, 0x1e, 0x19,
  0x51, 0xfc, 0x18, 0xf9, 0x56, 0x16, 0xc7, 0xcb, 0x0d, 0x1b, 0xf7, 0x1d,
  0x4c, 0x26, 0x26, 0x29, 0x17, 0xd5, 0x35, 0x0f, 0x0d, 0xf5, 0xc1, 0xec,
  0xca, 0xea, 0xe2, 0xe9, 0x15, 0x0d, 0x59, 0x1c, 0xfb, 0x2e, 0xd0, 0x2e,
  0xef, 0xc0, 0xbb, 0x56, 0xe5, 0x0d, 0xf5, 0xf4, 0xee, 0x27, 0x21, 0xd9,
  0xcf, 0xc0, 0xee, 0x53, 0xe8, 0xe2, 0xd9, 0xce, 0xe1, 0x39, 0x4d, 0x23,
  0x06, 0xd6, 0xcd, 0xd0, 0xcf, 0x48, 0x3b, 0x15, 0xb5, 0xf8, 0x35, 0x37,
  0x2a, 0xf5, 0x33, 0x4c, 0x03, 0x22, 0xe9, 0x02, 0xee, 0x2e, 0xe8, 0x3a,
  0x61, 0xbc, 0xeb, 0xc8, 0xe6, 0x07, 0x30, 0xe9, 0xf5, 0x45, 0xfe, 0x46,
  0x35, 0xfc, 0x21, 0x30, 0xd7, 0xff, 0x58, 0x29, 0xb8, 0x0d, 0x24, 0xfc,
  0xed, 0xcf, 0x2c, 0xe4, 0x4e, 0x1f, 0x45, 0xd2, 0x26, 0x35, 0xd6, 0x07,
  0x3a, 0xf3, 0x06, 0xf7, 0x0d, 0x45, 0x0f, 0x24, 0xde, 0x4b, 0x13, 0xf5,
  0x1b, 0x13, 0x04, 0x11, 0x1a, 0x19, 0xe4, 0x05, 0xef, 0x2a, 0x0b, 0x44,
  0x5e, 0x13, 0xf0, 0xe7, 0x0b, 0xc4, 0x06, 0xcf, 0xf7, 0xee, 0x29, 0x3b,
  0x13, 0x15, 0xcc, 0xda, 0x08, 0xec, 0xe3, 0xe6, 0xc9, 0x0d, 0xfa, 0x1a,
  0x25, 0xe6, 0x40, 0xd4, 0x38, 0xf6, 0x29, 0xcc, 0xcd, 0x0a, 0x17, 0x35,
  0x39, 0xca, 0x38, 0x18, 0xee, 0xf8, 0x0a, 0x38, 0x21, 0xc8, 0xfc, 0xcb,
  0x10, 0xfa, 0x40, 0x16, 0xe4, 0x32, 0xc8, 0xfa, 0xf5, 0x24, 0xdc, 0x0f,
  0x15, 0x1a, 0xe4, 0xc8, 0xf1, 0xf8, 0x12, 0xe2, 0xde, 0x1a, 0xfd, 0xcb,
  0xe3, 0x11, 0x2e, 0xc9, 0x3c, 0x27, 0xc5, 0x2a, 0x24, 0xe0, 0x25, 0x38,
  0xea, 0xeb, 0x37, 0x28, 0x34, 0xe5, 0xe4, 0xe7, 0x0d, 0x1c, 0x27, 0x03,
  0x0f, 0x05, 0xda, 0xf1, 0x20, 0x2a, 0x22, 0xff, 0xf8, 0x0e, 0x24, 0x37,
  0xf6, 0xe1, 0xdf, 0xcf, 0x2f, 0xc9, 0x14, 0xea, 0xed, 0x1a, 0xde, 0x03,
  0x03, 0x04, 0xac, 0x0b, 0x05, 0xd7, 0xf7, 0x25, 0xa1, 0x15, 0x24, 0x24,
  0xe3, 0x0b, 0x0c, 0xe2, 0xf3, 0x36, 0xc9, 0xdf, 0xa5, 0xfc, 0x31, 0xdd,
  0xe1, 0x16, 0x9a, 0xef, 0xee, 0xd4, 0xe7, 0xe2, 0xae, 0x01, 0xca, 0x26,
  0x08, 0x37, 0xf7, 0xd8, 0x02, 0x19, 0xe0, 0x30, 0x96, 0x01, 0xce, 0xda,
  0xc4, 0x08, 0x99, 0x35, 0x34, 0x0f, 0xbc, 0x34, 0x00, 0x1a, 0x14, 0xf2,
  0xd3, 0x21, 0xe6, 0x24, 0x04, 0xfc, 0xa9, 0x3c, 0xaa, 0x39, 0xcd, 0xe9,
  0x16, 0xdf, 0xac, 0xd1, 0x08, 0xd7, 0xc2, 0xe8, 0xdd, 0xdf, 0x1e, 0x04,
  0xe3, 0x10, 0xb2, 0x10, 0x04, 0x3a, 0xa8, 0x3d, 0x02, 0x38, 0x2b, 0x27,
  0xe7, 0x3f, 0xfb, 0x13, 0xfa, 0xe0, 0xdc, 0xd7, 0x30, 0x36, 0x27, 0xdf,
  0x13, 0xea, 0xf2, 0x32, 0x14, 0x22, 0xf6, 0x16, 0xfa, 0xe4, 0xd3, 0xe8,
  0x02, 0x1f, 0x2b, 0xc8, 0xca, 0xe3, 0x24, 0xf1, 0x08, 0xce, 0x18, 0x3e,
  0xd4, 0xfd, 0x19, 0xf6, 0x3e, 0x08, 0x20, 0x13, 0x04, 0x17, 0xe7, 0x31,
  0x03, 0xed, 0x1c, 0x30, 0xe7, 0x0a, 0xdc, 0x07, 0x34, 0xe0, 0x0b, 0x04,
  0x05, 0xc7, 0x26, 0x3d, 0xf0, 0x37, 0x31, 0xe3, 0x52, 0x3a, 0x39, 0x27,
  0x11, 0xc1, 0x39, 0x1a, 0x30, 0x13, 0x26, 0xe1, 0xe3, 0x0f, 0xfd, 0xcb,
  0x58, 0x29, 0x58, 0x1b, 0x26, 0x2d, 0x2e, 0xd6, 0x10, 0x13, 0x2e, 0xf1,
  0x01, 0xcd, 0x4b, 0x02, 0x11, 0x0d, 0x30, 0xbb, 0x30, 0xf9, 0x1c, 0x07,
  0xeb, 0xf7, 0x50, 0x04, 0xe9, 0xd6, 0x4a, 0xf0, 0x3c, 0xdc, 0xeb, 0x2d,
  0x0d, 0x04, 0x13, 0xd2, 0xf7, 0xf6, 0x49, 0xfd, 0x2b, 0xcc, 0x23, 0xd8,
  0x34, 0xff, 0x0c, 0x2d, 0x37, 0xf7, 0xf4, 0x13, 0xfc, 0x1d, 0xd5, 0xf2,
  0xe2, 0x20, 0x3b, 0xf8, 0x26, 0x2e, 0xd8, 0xb5, 0x1d, 0x38, 0xda, 0xe3,
  0x0c, 0xe3, 0x0e, 0xca, 0xd6, 0x04, 0xdd, 0xd4, 0xff, 0xc9, 0x1e, 0xdf,
  0xca, 0xc3, 0xc5, 0xe0, 0xdd, 0x29, 0x01, 0x16, 0xac, 0x33, 0xde, 0xfd,
  0x0c, 0xd4, 0xc9, 0x16, 0x2e, 0xe8, 0xb3, 0xdd, 0xde, 0xdd, 0x1c, 0x0b,
  0xab, 0xf7, 0xf1, 0xff, 0x18, 0xe0, 0xe6, 0x03, 0x92, 0x0d, 0xd6, 0xf3,
  0xf5, 0x01, 0xda, 0xf3, 0x25, 0xde, 0xc3, 0xfd, 0x87, 0x21, 0xf5, 0xe0,
  0xba, 0x09, 0xb4, 0xf3, 0x06, 0xd1, 0xc1, 0xd8, 0xc8, 0xfe, 0xe5, 0x12,
  0xb7, 0xd1, 0xa5, 0x34, 0xe6, 0x3c, 0x0a, 0x16, 0x81, 0x3c, 0xdb, 0xfe,
  0x26, 0x1e, 0xca, 0x15, 0x38, 0x03, 0xd8, 0xf6, 0xf1, 0x38, 0x23, 0x1d,
  0xe8, 0xfe, 0xf7, 0xdc, 0xcb, 0x2a, 0xc7, 0xe3, 0xc7, 0xd1, 0xe2, 0x1a,
  0xd9, 0x03, 0xd3, 0x28, 0x3d, 0xf1, 0xb6, 0x29, 0xc7, 0xdd, 0xec, 0xf8,
  0xb8, 0xd5, 0xe9, 0xda, 0x14, 0x27, 0x13, 0x2f, 0x08, 0xdc, 0x0a, 0x0c,
  0xf1, 0x17, 0xf0, 0xeb, 0xe1, 0x40, 0x00, 0xe9, 0x29, 0xcf, 0xdc, 0x2b,
  0xd5, 0xe6, 0x03, 0xe0, 0x1f, 0x0a, 0x0b, 0x22, 0xdd, 0x26, 0x24, 0x0e,
  0xed, 0x11, 0x39, 0xec, 0x23, 0xd8, 0xab, 0xe9, 0x3c, 0x02, 0x2f, 0x01,
  0xab, 0x07, 0x2e, 0xd3, 0xeb, 0xd4, 0xef, 0x13, 0xf2, 0x39, 0x23, 0x1d,
  0xd8, 0x41, 0xf5, 0x3f, 0xd3, 0x3a, 0xc1, 0xfd, 0x00, 0x06, 0x23, 0x0a,
  0x2c, 0x33, 0x28, 0x3b, 0x1c, 0xcc, 0x31, 0xf7, 0x4a, 0x30, 0xf9, 0x22,
  0xf8, 0xef, 0x10, 0x08, 0xff, 0xd1, 0xc1, 0x34, 0x2b, 0xd9, 0x32, 0xf3,
  0xe7, 0xee, 0x45, 0x29, 0xf7, 0x19, 0x01, 0xe9, 0x3a, 0x2a, 0xe1, 0x2f,
  0x1a, 0x09, 0x0e, 0xda, 0x26, 0xf4, 0x06, 0xee, 0x2b, 0x14, 0x3f, 0xe6,
  0xe8, 0x1c, 0xea, 0xfd, 0xe8, 0xd7, 0x17, 0x04, 0x43, 0x3d, 0x25, 0xf2,
  0x1f, 0xe6, 0x2e, 0x07, 0x28, 0x21, 0xf0, 0x21, 0xe5, 0x27, 0x3f, 0x28,
  0x13, 0xe9, 0xe3, 0xdb, 0x3d, 0xe0, 0x1d, 0x32, 0xda, 0xe1, 0xd4, 0x12,
  0xf1, 0x0d, 0x10, 0x40, 0x14, 0xce, 0x29, 0x05, 0xd6, 0xf2, 0xdc, 0x2f,
  0x00, 0xfe, 0x38, 0x1c, 0x33, 0x40, 0xd7, 0xda, 0xfb, 0x3f, 0xe1, 0x09,
  0xc4, 0x0f, 0x26, 0x38, 0xce, 0xd9, 0x2f, 0x0b, 0xfb, 0x3d, 0x12, 0x40,
  0x2d, 0x34, 0x13, 0xd6, 0xc9, 0xef, 0x2f, 0x00, 0xc9, 0x36, 0x0c, 0x15,
  0x1d, 0x24, 0x03, 0xfd, 0x04, 0x01, 0xe4, 0xf0, 0x20, 0xfe, 0x2c, 0xf2,
  0x18, 0xc7, 0xd7, 0xd1, 0x06, 0xd2, 0xfc, 0x1e, 0xe3, 0xd1, 0xcc, 0xcc,
  0x00, 0x1f, 0xab, 0x2e, 0xd1, 0xd6, 0x27, 0xd4, 0x04, 0xcd, 0xff, 0x3b,
  0x47, 0x13, 0x6f, 0xc1, 0xfe, 0x06, 0xd3, 0x73, 0xf2, 0xc3, 0x4b, 0xce,
  0x44, 0x42, 0x6a, 0x36, 0x3b, 0x2e, 0xd9, 0xff, 0x5c, 0x32, 0x2a, 0xcb,
  0xd5, 0x2a, 0x49, 0x3d, 0xe3, 0xf2, 0x5b, 0x33, 0x38, 0xce, 0x12, 0x09,
  0xde, 0x3a, 0x37, 0x1a, 0x1e, 0xc9, 0xd6, 0x3f, 0x69, 0xdf, 0x31, 0x32,
  0xde, 0x58, 0x53, 0xd7, 0xfa, 0xda, 0x1e, 0xfb, 0x34, 0x43, 0xc5, 0xd1,
  0xdb, 0x6d, 0x74, 0x56, 0x34, 0x31, 0xf1, 0x53, 0x02, 0xe1, 0x40, 0xd5,
  0xef, 0x54, 0x2f, 0xf1, 0xe8, 0xf9, 0xf2, 0x6b, 0xfb, 0x53, 0x12, 0x10,
  0xbb, 0x58, 0xf1, 0xe2, 0x55, 0xe1, 0x1b, 0x2b, 0x12, 0xcd, 0x49, 0xfd,
  0xce, 0x63, 0x41, 0x01, 0xfe, 0x0e, 0x3a, 0x5f, 0xda, 0x03, 0xfe, 0x3e,
  0xe5, 0x0d, 0xff, 0xee, 0xda, 0x29, 0xe8, 0x1c, 0xd0, 0x09, 0x44, 0x30,
  0x17, 0x6d, 0x27, 0x26, 0x3b, 0xfa, 0xec, 0xfd, 0x07, 0x12, 0xfb, 0x27,
  0xa5, 0x44, 0x2f, 0x4c, 0x35, 0x4d, 0xc2, 0x7f, 0x3d, 0xc4, 0x49, 0x26,
  0xcc, 0xeb, 0xf1, 0x15, 0x27, 0x3e, 0xaa, 0x0d, 0xfb, 0x50, 0x1b, 0x19,
  0x19, 0x5a, 0xff, 0x38, 0x2f, 0x18, 0xec, 0xee, 0xbb, 0xcc, 0x58, 0x2c,
  0x04, 0x62, 0x0a, 0x1b, 0xcf, 0x23, 0xe9, 0x0c, 0xec, 0x3f, 0x2a, 0x35,
  0xb1, 0x39, 0x02, 0x59, 0xde, 0x4a, 0xd6, 0x26, 0x43, 0x27, 0x1b, 0xe5,
  0xf0, 0xd0, 0x42, 0xdf, 0xc7, 0x2d, 0xe6, 0x36, 0x11, 0xe2, 0xea, 0x37,
  0x04, 0x40, 0xe1, 0xec, 0x44, 0x11, 0xcc, 0x29, 0x06, 0x23, 0xfe, 0x34,
  0xb2, 0x67, 0x0f, 0x15, 0xfe, 0x48, 0x24, 0x3e, 0x52, 0x0f, 0x20, 0xd9,
  0x00, 0x1e, 0x0b, 0x4e, 0xdc, 0xd0, 0x3c, 0xf8, 0xda, 0x10, 0xd5, 0x28,
  0xf6, 0xf6, 0x5b, 0xe7, 0x11, 0x2c, 0xb1, 0x75, 0x1f, 0x46, 0xe7, 0x49,
  0xbe, 0x7d, 0x1f, 0x44, 0xdd, 0xd9, 0xf8, 0xfb, 0x28, 0x35, 0x3a, 0xfe,
  0x3f, 0x04, 0xf8, 0x12, 0x16, 0xfa, 0x0c, 0x7f, 0xe7, 0x0e, 0xce, 0xee,
  0x43, 0x28, 0x4c, 0xfa, 0xc8, 0xd5, 0xb2, 0x2c, 0x1b, 0xfe, 0xdd, 0xe7,
  0x3b, 0xf0, 0x0e, 0x03, 0x2e, 0xfb, 0xd5, 0x01, 0xe7, 0xc2, 0xcb, 0x2f,
  0xc5, 0x10, 0xe8, 0x33, 0xec, 0xc4, 0xc7, 0x79, 0x1c, 0xcf, 0xd3, 0x28,
  0xc4, 0x5a, 0x4c, 0x50, 0xc6, 0xcd, 0x9d, 0x7e, 0x52, 0x58, 0x1b, 0x31,
  0x19, 0x7b, 0xf6, 0x2c, 0x04, 0xe1, 0xb8, 0x6f, 0x65, 0x42, 0x22, 0xf8,
  0x10, 0x20, 0x4b, 0xd0, 0xee, 0xe7, 0x98, 0x0f, 0x55, 0x00, 0x1a, 0xeb,
  0x99, 0x69, 0xec, 0xf0, 0x54, 0x4a, 0xab, 0x52, 0x0a, 0x4d, 0x3e, 0x3f,
  0xa8, 0x4f, 0x3b, 0x38, 0x29, 0xff, 0xaa, 0xf9, 0x15, 0xe4, 0xf8, 0x36,
  0xc6, 0xf3, 0x40, 0x2b, 0x38, 0x21, 0x36, 0x44, 0xed, 0x22, 0xfc, 0x38,
  0xdf, 0x32, 0xec, 0xf9, 0x4d, 0xda, 0x14, 0x09, 0xe3, 0xcf, 0xdb, 0xeb,
  0xd0, 0x25, 0xf3, 0xe9, 0x21, 0x45, 0xbe, 0x49, 0x4e, 0x30, 0x41, 0xd5,
  0x06, 0xf6, 0x09, 0xfe, 0xce, 0x53, 0x1c, 0x44, 0x2a, 0x3d, 0x1d, 0x25,
  0x1c, 0x48, 0xc1, 0x31, 0xf9, 0xec, 0x28, 0x6e, 0x4e, 0x49, 0xc5, 0xd1,
  0x2f, 0x6e, 0x26, 0x44, 0x41, 0x3a, 0x01, 0x02, 0xc2, 0xde, 0xe8, 0x4f,
  0xcb, 0x0b, 0xc4, 0xf1, 0x32, 0x10, 0xed, 0x27, 0xbe, 0x45, 0x4b, 0x2e,
  0xbb, 0xe9, 0x22, 0xca, 0xd5, 0x2a, 0xa0, 0xf6, 0x0c, 0x4a, 0x24, 0x11,
  0xb8, 0x63, 0x1d, 0xf7, 0x4a, 0x4d, 0x9b, 0x69, 0xf9, 0xe1, 0x2d, 0xf1,
  0xde, 0x64, 0x3c, 0xc6, 0x19, 0x26, 0x0a, 0x56, 0x3e, 0x53, 0xcf, 0x18,
  0xe7, 0x4f, 0x22, 0xd6, 0x30, 0x37, 0xa1, 0x05, 0xee, 0x2d, 0x3c, 0xeb,
  0xf4, 0xf3, 0x39, 0x11, 0x3a, 0x4f, 0xb9, 0xff, 0x20, 0xf0, 0xf0, 0xf9,
  0x14, 0x21, 0xd8, 0xfa, 0xe7, 0xe1, 0xdd, 0x78, 0x0f, 0x37, 0x43, 0x45,
  0xaa, 0xfd, 0xd2, 0xf0, 0xe8, 0xd0, 0x13, 0x5a, 0x38, 0x07, 0x06, 0x42,
  0x13, 0xfd, 0xe5, 0x17, 0x38, 0xfc, 0xd7, 0xf1, 0x50, 0x51, 0x14, 0xd7,
  0x07, 0x1f, 0x4c, 0x3b, 0x4f, 0xc3, 0x02, 0x44, 0xeb, 0x55, 0x07, 0xd1,
  0x47, 0xe6, 0x38, 0x2e, 0x54, 0x2d, 0xea, 0x63, 0xd8, 0x25, 0xf2, 0xfd,
  0xe3, 0x08, 0x1d, 0x47, 0xcb, 0x53, 0x12, 0x5e, 0x42, 0xca, 0x20, 0x0c,
  0xf1, 0x1a, 0x18, 0x23, 0x2a, 0x52, 0x04, 0xf6, 0xda, 0xc9, 0x06, 0x3a,
  0xae, 0xe1, 0xe9, 0xfe, 0x0a, 0xca, 0xb6, 0x34, 0xe4, 0xce, 0xd5, 0xee,
  0x0a, 0x43, 0x01, 0x29, 0x1d, 0x24, 0x33, 0x63, 0x2e, 0x2d, 0x3e, 0xe0,
  0xb8, 0x41, 0x0c, 0x0a, 0x52, 0x3f, 0xcd, 0xe1, 0x17, 0x2d, 0xec, 0x3e,
  0xf4, 0x4b, 0x04, 0x0f, 0xd2, 0x33, 0xdc, 0x57, 0x24, 0x48, 0x3d, 0x25,
  0x10, 0x36, 0x02, 0x43, 0x39, 0x00, 0xb5, 0x32, 0xd9, 0x0f, 0x4f, 0xe3,
  0xc7, 0x0e, 0x05, 0x56, 0x45, 0xff, 0xea, 0x2e, 0x41, 0x18, 0xcc, 0xef,
  0x11, 0xeb, 0x10, 0xe8, 0x39, 0x50, 0x32, 0x5e, 0x60, 0x1f, 0x54, 0x0d,
  0xd8, 0x60, 0x19, 0x0a, 0x1b, 0x2d, 0x25, 0x60, 0xf7, 0x33, 0xf7, 0xe7,
  0x25, 0xf6, 0xfa, 0xc3, 0x45, 0x2e, 0xca, 0x49, 0x69, 0x1a, 0xc5, 0x35,
  0x16, 0x0e, 0xfb, 0x54, 0x0c, 0xd4, 0x45, 0x35, 0x59, 0x09, 0x12, 0x37,
  0x29, 0x4c, 0x42, 0x32, 0xdf, 0xe5, 0x0f, 0xc9, 0xfe, 0x24, 0x28, 0xec,
  0xbb, 0xc6, 0x12, 0xba, 0xdc, 0xf9, 0xc3, 0x52, 0xfa, 0x4c, 0xcb, 0x06,
  0x52, 0x3e, 0x60, 0xe9, 0x22, 0xfc, 0x0e, 0x13, 0x5e, 0xf7, 0x11, 0xd9,
  0x36, 0xcd, 0x60, 0x1d, 0xc5, 0x05, 0xc3, 0x39, 0x4f, 0xcd, 0xe5, 0x3a,
  0xf4, 0x2d, 0x3e, 0x24, 0xde, 0x40, 0xc9, 0x3b, 0x7a, 0xb9, 0x4f, 0x2d,
  0x2a, 0x35, 0x3e, 0x03, 0x42, 0xe7, 0x02, 0x04, 0x7b, 0x4e, 0x16, 0xef,
  0xc7, 0xd2, 0x72, 0xe1, 0x19, 0xfa, 0xac, 0x11, 0xf4, 0x47, 0x0d, 0x1b,
  0xb2, 0x59, 0x70, 0x4f, 0x21, 0x1b, 0xf7, 0x4c, 0x05, 0x1a, 0x3e, 0x12,
  0x3b, 0x4d, 0x78, 0x3e, 0x36, 0x37, 0xad, 0x50, 0x3e, 0xf4, 0x3c, 0x31,
  0xcf, 0x1a, 0xdf, 0x01, 0x4c, 0xb8, 0x16, 0xf9, 0x02, 0x05, 0x35, 0xfe,
  0x26, 0xb8, 0x56, 0xc8, 0xf1, 0xce, 0x0c, 0x1b, 0xe9, 0xb8, 0xda, 0xea,
  0x07, 0x5d, 0x2e, 0x19, 0xff, 0x19, 0x27, 0x26, 0x5e, 0x46, 0x4f, 0x16,
  0x0e, 0x5b, 0x06, 0x47, 0xd7, 0xeb, 0xdb, 0x27, 0xce, 0xbd, 0xfa, 0x10,
  0x58, 0xe0, 0xde, 0x3a, 0x54, 0x1e, 0x15, 0xdd, 0x3c, 0xd0, 0xe2, 0xe1,
  0xea, 0x3e, 0x17, 0x4b, 0x0d, 0x16, 0xbe, 0x5c, 0xdf, 0x31, 0x2b, 0x02,
  0x50, 0x04, 0xc8, 0xc4, 0xc5, 0x19, 0xfe, 0x34, 0x15, 0x0b, 0xb9, 0x37,
  0x45, 0x72, 0x97, 0x53, 0xcc, 0x48, 0xcc, 0x1f, 0x9c, 0x15, 0xe6, 0x2e,
  0x90, 0x39, 0x9f, 0x30, 0xbf, 0xe0, 0x0d, 0x12, 0xc0, 0xec, 0xcc, 0xdc,
  0xca, 0xfd, 0xa2, 0x38, 0x20, 0x3f, 0xeb, 0x3f, 0xb6, 0xde, 0x02, 0xf8,
  0xd6, 0x42, 0xe1, 0x39, 0x55, 0x0f, 0xcf, 0x0e, 0xea, 0x48, 0xc7, 0xdd,
  0x81, 0x51, 0x9e, 0x2a, 0x46, 0xe1, 0x0a, 0xd3, 0xb1, 0x04, 0xda, 0x40,
  0xf0, 0xed, 0x2b, 0x3d, 0x28, 0xdc, 0x8e, 0x10, 0xd3, 0x3e, 0xc6, 0xe9,
  0xd9, 0x52, 0xe6, 0xc2, 0x15, 0x30, 0x06, 0x1e, 0x10, 0xe7, 0x1e, 0x30,
  0xc4, 0x1b, 0xef, 0xf6, 0xd2, 0x32, 0xa6, 0x20, 0x19, 0xe3, 0x33, 0xca,
  0xe1, 0xed, 0x03, 0x42, 0x40, 0xcf, 0xe9, 0xf7, 0xea, 0x22, 0x08, 0x40,
  0x8e, 0x01, 0x43, 0xc8, 0xb9, 0x1c, 0xf5, 0x2d, 0x41, 0x45, 0xd6, 0xfa,
  0xb1, 0xc9, 0xe5, 0x42, 0x49, 0x4e, 0x13, 0xe7, 0x1a, 0xcf, 0xf8, 0x2e,
  0x31, 0x35, 0x23, 0xd3, 0x1a, 0xc6, 0xbc, 0x06, 0xf2, 0x38, 0xfe, 0x12,
  0x30, 0x03, 0x22, 0xcb, 0x25, 0xec, 0xd7, 0x16, 0x46, 0xb8, 0x0d, 0x11,
  0x4a, 0x9d, 0x66, 0x23, 0x12, 0xfd, 0x11, 0x22, 0x52, 0xf5, 0x03, 0x05,
  0xf8, 0x40, 0x50, 0xf8, 0x4e, 0x0d, 0x74, 0xcc, 0x43, 0xd4, 0x1d, 0xbd,
  0x28, 0xaf, 0x51, 0x23, 0x2f, 0x1f, 0x17, 0x02, 0x1a, 0xf7, 0xcc, 0xc9,
  0x78, 0xf6, 0xf3, 0xe8, 0xd7, 0xfc, 0x0d, 0xf2, 0x66, 0xfa, 0x23, 0x1d,
  0x0c, 0xdd, 0x4e, 0xcd, 0x2a, 0xc1, 0x42, 0xa4, 0xfd, 0x4d, 0x55, 0x0d,
  0x73, 0xf7, 0x33, 0xdd, 0x1e, 0x36, 0x3c, 0x0e, 0xf8, 0x0b, 0xd1, 0xda,
  0x51, 0xf4, 0x00, 0xe4, 0x3f, 0x1a, 0x3d, 0x2b, 0x3c, 0xef, 0x0f, 0xdf,
  0x16, 0xfa, 0xf6, 0x09, 0x18, 0x19, 0x17, 0xb9, 0x5a, 0xf4, 0xbe, 0x22,
  0x3f, 0x04, 0x08, 0xf2, 0xc8, 0xc9, 0xf9, 0x14, 0x4b, 0x4c, 0x16, 0x35,
  0x08, 0x02, 0xd8, 0xeb, 0xf4, 0x12, 0x1a, 0xa6, 0x0e, 0xe0, 0x36, 0x12,
  0x6f, 0x3c, 0x08, 0xbf, 0xd8, 0xcd, 0x05, 0x2a, 0xd8, 0xde, 0x11, 0xda,
  0x14, 0xb3, 0xed, 0xb6, 0x0d, 0xca, 0x6e, 0xe2, 0xbd, 0xbf, 0xc8, 0x54,
  0x1d, 0x00, 0xea, 0xf9, 0x0c, 0x49, 0x4c, 0x19, 0xd2, 0xdb, 0xc7, 0xde,
